#ifndef WEATHER_MODEL_SMALL_H
#define WEATHER_MODEL_SMALL_H

#include <pgmspace.h>

alignas(8) const unsigned char weather_model[] PROGMEM = {
    0x1c, 0x00, 0x00, 0x00, 0x54, 0x46, 0x4c, 0x33, 0x14, 0x00, 0x20, 0x00,
    0x1c, 0x00, 0x18, 0x00, 0x14, 0x00, 0x10, 0x00, 0x0c, 0x00, 0x00, 0x00,
    0x08, 0x00, 0x04, 0x00, 0x14, 0x00, 0x00, 0x00, 0x1c, 0x00, 0x00, 0x00,
    0x8c, 0x00, 0x00, 0x00, 0xe4, 0x00, 0x00, 0x00, 0xe4, 0x19, 0x00, 0x00,
    0xf4, 0x19, 0x00, 0x00, 0x64, 0x28, 0x00, 0x00, 0x03, 0x00, 0x00, 0x00,
    0x01, 0x00, 0x00, 0x00, 0x04, 0x00, 0x00, 0x00, 0x16, 0xe4, 0xff, 0xff,
    0x0c, 0x00, 0x00, 0x00, 0x1c, 0x00, 0x00, 0x00, 0x3c, 0x00, 0x00, 0x00,
    0x0f, 0x00, 0x00, 0x00, 0x73, 0x65, 0x72, 0x76, 0x69, 0x6e, 0x67, 0x5f,
    0x64, 0x65, 0x66, 0x61, 0x75, 0x6c, 0x74, 0x00, 0x01, 0x00, 0x00, 0x00,
    0x04, 0x00, 0x00, 0x00, 0x90, 0xff, 0xff, 0xff, 0x15, 0x00, 0x00, 0x00,
    0x04, 0x00, 0x00, 0x00, 0x08, 0x00, 0x00, 0x00, 0x6f, 0x75, 0x74, 0x70,
    0x75, 0x74, 0x5f, 0x30, 0x00, 0x00, 0x00, 0x00, 0x01, 0x00, 0x00, 0x00,
    0x04, 0x00, 0x00, 0x00, 0xca, 0xe5, 0xff, 0xff, 0x04, 0x00, 0x00, 0x00,
    0x0c, 0x00, 0x00, 0x00, 0x6b, 0x65, 0x72, 0x61, 0x73, 0x5f, 0x74, 0x65,
    0x6e, 0x73, 0x6f, 0x72, 0x00, 0x00, 0x00, 0x00, 0x02, 0x00, 0x00, 0x00,
    0x34, 0x00, 0x00, 0x00, 0x04, 0x00, 0x00, 0x00, 0xdc, 0xff, 0xff, 0xff,
    0x18, 0x00, 0x00, 0x00, 0x04, 0x00, 0x00, 0x00, 0x13, 0x00, 0x00, 0x00,
    0x43, 0x4f, 0x4e, 0x56, 0x45, 0x52, 0x53, 0x49, 0x4f, 0x4e, 0x5f, 0x4d,
    0x45, 0x54, 0x41, 0x44, 0x41, 0x54, 0x41, 0x00, 0x08, 0x00, 0x0c, 0x00,
    0x08, 0x00, 0x04, 0x00, 0x08, 0x00, 0x00, 0x00, 0x17, 0x00, 0x00, 0x00,
    0x04, 0x00, 0x00, 0x00, 0x13, 0x00, 0x00, 0x00, 0x6d, 0x69, 0x6e, 0x5f,
    0x72, 0x75, 0x6e, 0x74, 0x69, 0x6d, 0x65, 0x5f, 0x76, 0x65, 0x72, 0x73,
    0x69, 0x6f, 0x6e, 0x00, 0x19, 0x00, 0x00, 0x00, 0xfc, 0x18, 0x00, 0x00,
    0xf4, 0x18, 0x00, 0x00, 0xe0, 0x18, 0x00, 0x00, 0xcc, 0x18, 0x00, 0x00,
    0xb8, 0x18, 0x00, 0x00, 0xa4, 0x18, 0x00, 0x00, 0x90, 0x18, 0x00, 0x00,
    0x88, 0x18, 0x00, 0x00, 0xf8, 0x17, 0x00, 0x00, 0xdc, 0x17, 0x00, 0x00,
    0x4c, 0x0a, 0x00, 0x00, 0xfc, 0x04, 0x00, 0x00, 0xec, 0x00, 0x00, 0x00,
    0xe4, 0x00, 0x00, 0x00, 0xdc, 0x00, 0x00, 0x00, 0xd4, 0x00, 0x00, 0x00,
    0xcc, 0x00, 0x00, 0x00, 0xc4, 0x00, 0x00, 0x00, 0xbc, 0x00, 0x00, 0x00,
    0xb4, 0x00, 0x00, 0x00, 0xac, 0x00, 0x00, 0x00, 0xa4, 0x00, 0x00, 0x00,
    0x9c, 0x00, 0x00, 0x00, 0x7c, 0x00, 0x00, 0x00, 0x04, 0x00, 0x00, 0x00,
    0xaa, 0xe6, 0xff, 0xff, 0x04, 0x00, 0x00, 0x00, 0x68, 0x00, 0x00, 0x00,
    0x0c, 0x00, 0x00, 0x00, 0x08, 0x00, 0x0e, 0x00, 0x08, 0x00, 0x04, 0x00,
    0x08, 0x00, 0x00, 0x00, 0x14, 0x00, 0x00, 0x00, 0x30, 0x00, 0x00, 0x00,
    0x00, 0x00, 0x0a, 0x00, 0x0c, 0x00, 0x08, 0x00, 0x00, 0x00, 0x07, 0x00,
    0x0a, 0x00, 0x00, 0x00, 0x00, 0x00, 0x00, 0x01, 0x04, 0x00, 0x00, 0x00,
    0x01, 0x00, 0x00, 0x00, 0xea, 0x03, 0x00, 0x00, 0x0c, 0x00, 0x18, 0x00,
    0x14, 0x00, 0x10, 0x00, 0x0c, 0x00, 0x04, 0x00, 0x0c, 0x00, 0x00, 0x00,
    0x75, 0x13, 0x61, 0xd7, 0xa5, 0x6d, 0xb5, 0x5a, 0x02, 0x00, 0x00, 0x00,
    0x02, 0x00, 0x00, 0x00, 0x04, 0x00, 0x00, 0x00, 0x06, 0x00, 0x00, 0x00,
    0x32, 0x2e, 0x31, 0x38, 0x2e, 0x30, 0x00, 0x00, 0x1e, 0xe7, 0xff, 0xff,
    0x04, 0x00, 0x00, 0x00, 0x10, 0x00, 0x00, 0x00, 0x32, 0x2e, 0x31, 0x37,
    0x2e, 0x30, 0x00, 0x00, 0x00, 0x00, 0x00, 0x00, 0x00, 0x00, 0x00, 0x00,
    0xa8, 0xd9, 0xff, 0xff, 0xac, 0xd9, 0xff, 0xff, 0xb0, 0xd9, 0xff, 0xff,
    0xb4, 0xd9, 0xff, 0xff, 0xb8, 0xd9, 0xff, 0xff, 0xbc, 0xd9, 0xff, 0xff,
    0xc0, 0xd9, 0xff, 0xff, 0xc4, 0xd9, 0xff, 0xff, 0xc8, 0xd9, 0xff, 0xff,
    0xcc, 0xd9, 0xff, 0xff, 0x62, 0xe7, 0xff, 0xff, 0x04, 0x00, 0x00, 0x00,
    0x00, 0x04, 0x00, 0x00, 0xdf, 0x70, 0xdc, 0xa6, 0x1f, 0x34, 0x2e, 0x5f,
    0x38, 0x00, 0x29, 0xb4, 0x8f, 0x0a, 0xb4, 0x68, 0x10, 0xba, 0x1a, 0x4e,
    0x16, 0x9a, 0x81, 0x1d, 0x10, 0x3a, 0xb8, 0xba, 0xb2, 0x1b, 0xfd, 0x82,
    0x24, 0x09, 0x68, 0xe4, 0x66, 0xb8, 0x34, 0x43, 0x0b, 0x74, 0x3e, 0x7d,
    0x0e, 0xae, 0x05, 0x0f, 0xd0, 0x63, 0x6f, 0x58, 0x8f, 0x92, 0x7f, 0x90,
    0xc7, 0xb9, 0xc2, 0x62, 0xe2, 0x0f, 0x0a, 0x96, 0x08, 0xae, 0xeb, 0x27,
    0x7f, 0x14, 0x49, 0x50, 0x05, 0xb0, 0xc0, 0xcf, 0x8e, 0x64, 0x28, 0x2c,
    0x3c, 0x81, 0x1b, 0x74, 0x62, 0xf8, 0x9d, 0x70, 0xdf, 0x0d, 0x73, 0xae,
    0x6f, 0xd1, 0x15, 0x4b, 0x76, 0xc9, 0x7e, 0x4b, 0x7a, 0x8b, 0xee, 0x1d,
    0xae, 0x73, 0x16, 0xed, 0x9e, 0x55, 0xce, 0x88, 0xed, 0xc8, 0x96, 0x77,
    0x61, 0x90, 0x62, 0xe8, 0xea, 0x99, 0x7f, 0x6f, 0x5d, 0x2e, 0x50, 0xfc,
    0x7d, 0x36, 0xd1, 0x44, 0x8b, 0x8e, 0x25, 0x7d, 0xc5, 0x4c, 0xc2, 0x93,
    0x56, 0x0a, 0xc1, 0x7f, 0x4a, 0x76, 0x9f, 0xe9, 0x9f, 0x73, 0xb9, 0x45,
    0x2d, 0x0d, 0x17, 0x9a, 0xc0, 0x36, 0xfa, 0x61, 0x42, 0x04, 0x39, 0x41,
    0xe3, 0xec, 0x94, 0x0a, 0xc9, 0xd3, 0xe6, 0xb3, 0x10, 0xa1, 0x8f, 0x16,
    0x8d, 0x7f, 0x44, 0x51, 0xce, 0x91, 0xed, 0x16, 0x1a, 0xba, 0xcb, 0xa9,
    0xf7, 0x3c, 0xe5, 0x88, 0x17, 0x5a, 0x36, 0xa8, 0x05, 0x81, 0x2c, 0xb2,
    0xa8, 0x2d, 0x84, 0x36, 0x3b, 0x39, 0xd0, 0x2e, 0x9b, 0xdf, 0x0a, 0x43,
    0xf7, 0x97, 0x70, 0x05, 0x25, 0x65, 0x57, 0xdc, 0x9e, 0xd2, 0x5d, 0x32,
    0x41, 0xd9, 0xf1, 0x43, 0x51, 0xdb, 0x06, 0xef, 0xd4, 0x48, 0x01, 0x81,
    0x2a, 0x61, 0x25, 0x0e, 0x7b, 0x12, 0xed, 0xf3, 0xa2, 0x0e, 0xaa, 0xee,
    0x78, 0x7f, 0x2b, 0xe3, 0xac, 0x4d, 0xa6, 0x40, 0x81, 0x7e, 0xb1, 0x26,
    0x7e, 0xbb, 0xb9, 0x8b, 0x53, 0x8a, 0x52, 0x11, 0x2d, 0x05, 0x6c, 0xdc,
    0x07, 0xc5, 0xfe, 0xdc, 0x4e, 0x82, 0xd1, 0xdc, 0x1d, 0x6d, 0xe0, 0x64,
    0xc4, 0x1d, 0x5f, 0x2a, 0xad, 0x13, 0x13, 0x22, 0x0f, 0x64, 0x81, 0x4a,
    0xc7, 0x55, 0xc5, 0xe9, 0xb5, 0x03, 0xe7, 0x7a, 0x22, 0xee, 0x7b, 0xc4,
    0xa3, 0x29, 0x70, 0xb5, 0x9c, 0x4b, 0x76, 0xa7, 0xa4, 0x67, 0x45, 0x1c,
    0xb6, 0x5a, 0x84, 0x23, 0xab, 0x81, 0xa3, 0x60, 0x63, 0xc4, 0xec, 0x75,
    0x6e, 0x02, 0x4d, 0x11, 0xc1, 0x79, 0xbd, 0x3b, 0x7a, 0xe1, 0xb7, 0xf5,
    0xbe, 0x5a, 0x97, 0xe8, 0x8c, 0xe7, 0x1d, 0xf6, 0x64, 0x28, 0xbf, 0xd4,
    0xf4, 0x3b, 0xe5, 0xec, 0xd8, 0xf1, 0xc3, 0x7f, 0xa4, 0x69, 0xb3, 0x83,
    0x5e, 0x79, 0x59, 0x36, 0x52, 0xf7, 0xb2, 0x43, 0x56, 0x4b, 0x0d, 0xd6,
    0xef, 0x7a, 0x5f, 0x00, 0xd3, 0x68, 0x6f, 0xa3, 0x9d, 0x27, 0x16, 0x48,
    0xe6, 0xf6, 0x8c, 0x39, 0x7f, 0x64, 0x71, 0x81, 0xee, 0xcd, 0x7d, 0x03,
    0xfe, 0x2e, 0xfb, 0x25, 0xcd, 0x70, 0xb2, 0x48, 0x93, 0x0f, 0xa2, 0x45,
    0x7f, 0xb5, 0xe6, 0x05, 0xc5, 0x6d, 0xc9, 0x01, 0x7c, 0xc8, 0x6f, 0x64,
    0xe8, 0x95, 0x74, 0x5b, 0x06, 0xcd, 0xe3, 0x43, 0x23, 0x38, 0xc5, 0x4d,
    0xd3, 0x8a, 0xb4, 0x89, 0x77, 0x8a, 0x42, 0xf5, 0x08, 0xb9, 0x1a, 0x27,
    0x08, 0x7e, 0x9a, 0x2c, 0x32, 0xfd, 0x48, 0x57, 0x71, 0x17, 0xba, 0x29,
    0x49, 0xd5, 0x07, 0x37, 0xa4, 0xf8, 0x07, 0x18, 0xcc, 0x7f, 0x78, 0xbe,
    0xcc, 0x9e, 0xa7, 0x24, 0x81, 0x1f, 0xcc, 0x42, 0xaf, 0x68, 0x46, 0xcc,
    0x15, 0xee, 0xc4, 0x39, 0x97, 0xa3, 0xff, 0x51, 0x14, 0x65, 0xaf, 0xcd,
    0x1e, 0x95, 0xb6, 0xd7, 0x03, 0x79, 0x40, 0xfd, 0x4a, 0x1f, 0xe4, 0x1f,
    0x31, 0x4e, 0x8b, 0xc6, 0x25, 0x24, 0x17, 0x6f, 0x7c, 0x97, 0x73, 0xaf,
    0x73, 0xb4, 0x2c, 0x76, 0x00, 0xcc, 0x9a, 0x38, 0x76, 0xff, 0x1f, 0x2f,
    0x0a, 0xe3, 0xe9, 0x0b, 0x7f, 0xd8, 0x4a, 0xcf, 0xa8, 0xd5, 0xae, 0x34,
    0x7c, 0xfa, 0x52, 0x1a, 0x37, 0x7a, 0x90, 0x8f, 0xdc, 0xdc, 0x0d, 0x99,
    0x2d, 0xf9, 0x2d, 0x51, 0x2f, 0x58, 0x68, 0x96, 0x6b, 0x5d, 0x7f, 0x46,
    0xc3, 0x28, 0x01, 0x40, 0x0c, 0x05, 0x45, 0xd0, 0xf7, 0xa8, 0x8c, 0x66,
    0xe0, 0x9e, 0x2f, 0xdd, 0x28, 0x7c, 0x92, 0xd6, 0x95, 0x4e, 0x9e, 0x16,
    0x7f, 0x8d, 0x8a, 0x15, 0x17, 0x8c, 0x2d, 0x58, 0xbf, 0x49, 0xf1, 0x13,
    0xc9, 0xfa, 0x7f, 0x6d, 0x8e, 0x4d, 0xec, 0x7e, 0x07, 0x0b, 0xb6, 0x44,
    0xf8, 0xd4, 0xdb, 0xc5, 0xac, 0x70, 0xca, 0x27, 0x1f, 0xb6, 0x96, 0x45,
    0x98, 0xcf, 0x1d, 0xec, 0xee, 0x21, 0x0c, 0xd1, 0x0d, 0x92, 0x4d, 0xfe,
    0x59, 0x47, 0xeb, 0x24, 0xb2, 0x08, 0x33, 0x63, 0xe9, 0xbe, 0x3c, 0x63,
    0xac, 0x45, 0xac, 0x1a, 0x81, 0x36, 0x9f, 0x30, 0x47, 0xc0, 0xe9, 0x58,
    0x69, 0x9a, 0x63, 0xe9, 0xa8, 0x8d, 0x17, 0x71, 0x19, 0x85, 0xad, 0x53,
    0x6d, 0xd8, 0xf0, 0xd4, 0x67, 0x43, 0x2f, 0x81, 0x73, 0xf1, 0xdd, 0x68,
    0x31, 0x91, 0x00, 0x0b, 0xc1, 0x74, 0x31, 0x6a, 0x5b, 0x2c, 0x92, 0xfc,
    0x0d, 0x37, 0xd6, 0x7f, 0xec, 0xb4, 0x3d, 0xbe, 0x5a, 0xac, 0x41, 0xeb,
    0x68, 0xc9, 0x81, 0xc7, 0x90, 0xaa, 0xe7, 0x90, 0x4e, 0x16, 0xe0, 0xac,
    0x8a, 0x6c, 0x6d, 0x6a, 0x08, 0x09, 0x6a, 0x3f, 0xe6, 0xa5, 0x33, 0x67,
    0x55, 0xeb, 0xfa, 0x62, 0xe0, 0x81, 0x24, 0x2c, 0xad, 0x1c, 0x1d, 0x0f,
    0x11, 0x49, 0x83, 0xda, 0x4d, 0x9c, 0xaf, 0x5e, 0x78, 0x20, 0xe3, 0xfc,
    0x9d, 0x1b, 0x58, 0xfb, 0xbc, 0x9d, 0xdd, 0xce, 0xbe, 0x3a, 0xde, 0x49,
    0x58, 0x0e, 0x38, 0x9e, 0x34, 0x3f, 0x37, 0xd9, 0x9a, 0x6d, 0x4c, 0x44,
    0xcd, 0xa9, 0xad, 0x0b, 0x91, 0x6f, 0x70, 0x81, 0xbe, 0x39, 0x19, 0x64,
    0xb5, 0x5d, 0x91, 0x2d, 0x24, 0x91, 0x21, 0x46, 0xdd, 0x74, 0x7c, 0x81,
    0x40, 0x76, 0xdd, 0x45, 0xce, 0xb5, 0x83, 0x8c, 0x7a, 0x26, 0x21, 0x3a,
    0x41, 0xa5, 0x0b, 0x9f, 0xe4, 0x55, 0x16, 0x06, 0x82, 0xf0, 0x02, 0x37,
    0x00, 0x5e, 0xce, 0xe8, 0xda, 0xb3, 0x45, 0x11, 0x81, 0xa8, 0xcc, 0x1a,
    0xd6, 0x78, 0xff, 0xd0, 0x6d, 0xba, 0x1a, 0xf9, 0x31, 0x65, 0x23, 0xcf,
    0x53, 0xd7, 0xaa, 0x2c, 0x54, 0xd9, 0x5c, 0x6c, 0xa4, 0x5f, 0x17, 0x9c,
    0xd8, 0x63, 0x11, 0x08, 0xb5, 0xf1, 0x66, 0xb3, 0x96, 0xb6, 0xa8, 0xb6,
    0x04, 0x6a, 0x16, 0xd8, 0x1b, 0x60, 0x81, 0xf3, 0xb1, 0xa9, 0x45, 0xee,
    0xd7, 0xf6, 0xc8, 0x5a, 0xbe, 0x10, 0xce, 0x0a, 0x87, 0x39, 0x2c, 0x85,
    0x54, 0x81, 0xdd, 0x0c, 0x10, 0x94, 0x75, 0xdf, 0xe6, 0xc0, 0x5d, 0xf5,
    0x1e, 0x91, 0x31, 0x5a, 0xec, 0xfa, 0x0e, 0xf8, 0x12, 0x90, 0xbc, 0xc2,
    0xbc, 0xe0, 0x69, 0xde, 0xcd, 0xbd, 0x86, 0x21, 0x17, 0xfd, 0xf7, 0xd7,
    0x18, 0x74, 0xe8, 0x0f, 0x30, 0x73, 0x7d, 0x93, 0x42, 0x93, 0x3a, 0xe3,
    0xbe, 0x95, 0x04, 0x81, 0x4e, 0xa6, 0xcd, 0x58, 0xcf, 0x81, 0x88, 0x7d,
    0x4a, 0xc8, 0x91, 0x70, 0x72, 0x98, 0x5a, 0x66, 0xf1, 0x24, 0x69, 0xa7,
    0x8c, 0x83, 0xa5, 0xc4, 0xca, 0xc7, 0xa7, 0x0a, 0xf7, 0x74, 0x00, 0x08,
    0x07, 0x46, 0xdc, 0x94, 0xe2, 0xe8, 0x57, 0xe2, 0x86, 0x27, 0x79, 0x25,
    0x22, 0x5e, 0x5a, 0x81, 0xbb, 0x4f, 0x6f, 0xd6, 0xaa, 0x3d, 0x6d, 0xb4,
    0x97, 0x87, 0x15, 0xef, 0xd9, 0x88, 0xd8, 0xac, 0x6e, 0xeb, 0xff, 0xff,
    0x04, 0x00, 0x00, 0x00, 0x40, 0x05, 0x00, 0x00, 0xcd, 0xd1, 0xde, 0x88,
    0x58, 0xff, 0xa3, 0xf0, 0x48, 0x0a, 0xe6, 0xd4, 0x57, 0x92, 0x75, 0x61,
    0x0f, 0xa6, 0xb3, 0xe5, 0xe9, 0xd7, 0xa7, 0x9b, 0x0a, 0x66, 0x6c, 0x2d,
    0x9c, 0x25, 0x81, 0xbf, 0x1e, 0x5d, 0xb1, 0xce, 0x7c, 0xc8, 0x01, 0x88,
    0x42, 0xef, 0xbb, 0xc1, 0x59, 0x07, 0x1c, 0x72, 0x66, 0x54, 0x2e, 0x8b,
    0x76, 0x3a, 0x81, 0x07, 0xff, 0x04, 0xb3, 0x40, 0x96, 0x5c, 0xda, 0x4a,
    0x23, 0xf3, 0x75, 0x1a, 0xe9, 0xb1, 0x18, 0x82, 0x61, 0xf4, 0x7f, 0xd6,
    0x4f, 0xe8, 0xe5, 0x45, 0x00, 0x52, 0x12, 0xe5, 0x11, 0x28, 0x4a, 0xda,
    0x60, 0xcf, 0xfa, 0xfe, 0x1c, 0x85, 0x15, 0xcc, 0x0d, 0xc1, 0x76, 0x43,
    0xfe, 0x9b, 0xf6, 0xd1, 0x4f, 0xa1, 0xac, 0xcd, 0xa0, 0xd4, 0x1f, 0x7f,
    0x1c, 0x60, 0x85, 0x74, 0x1d, 0xb2, 0x91, 0x2a, 0x74, 0x3a, 0x4d, 0x0d,
    0x45, 0x9a, 0xc5, 0xf8, 0xde, 0x0c, 0x7a, 0xf2, 0xe1, 0x7a, 0x91, 0x3c,
    0x90, 0x26, 0xfa, 0x16, 0x3f, 0x7f, 0x28, 0xec, 0x93, 0x7d, 0x55, 0xa2,
    0xf9, 0x37, 0xb6, 0xd8, 0xa9, 0x85, 0x9c, 0x4b, 0x36, 0x06, 0xf2, 0x81,
    0x46, 0x11, 0x63, 0x9f, 0xf1, 0xf2, 0x3c, 0xc8, 0x8a, 0xc6, 0x23, 0xcc,
    0xf0, 0xdb, 0xb8, 0xa0, 0x23, 0x29, 0x5f, 0xef, 0x2a, 0xe2, 0x81, 0x1f,
    0x66, 0x78, 0x2f, 0x54, 0x20, 0xf4, 0x5b, 0x5f, 0xf0, 0xdc, 0xd2, 0xba,
    0x04, 0xb5, 0xf0, 0x7e, 0x7f, 0x34, 0xbc, 0xe0, 0xf6, 0xec, 0x6a, 0x53,
    0xa0, 0xcf, 0x9c, 0x72, 0x73, 0x81, 0x82, 0xc1, 0x2c, 0x71, 0x1c, 0x38,
    0xe9, 0x19, 0x5a, 0x5c, 0xce, 0xa1, 0x15, 0xce, 0xa2, 0x4a, 0x7b, 0x9e,
    0x2f, 0xaf, 0x71, 0x18, 0x32, 0xda, 0x81, 0x91, 0x7b, 0xa4, 0xb9, 0x6f,
    0xaf, 0x3a, 0x1d, 0x03, 0x56, 0xd4, 0x32, 0xb1, 0x32, 0x49, 0x66, 0x53,
    0xa0, 0x3d, 0xac, 0x45, 0x8a, 0x86, 0x2b, 0x9f, 0x46, 0x6d, 0x99, 0x22,
    0xc9, 0xb7, 0xb0, 0x7e, 0xb2, 0xfb, 0x81, 0x17, 0x37, 0x83, 0x31, 0x27,
    0xe4, 0xe6, 0x66, 0xa9, 0x2b, 0xb5, 0x34, 0x3c, 0x07, 0x8b, 0x4d, 0x2b,
    0x0a, 0x07, 0xe9, 0x81, 0x73, 0xfe, 0x8b, 0xbb, 0xc8, 0x90, 0x12, 0x52,
    0x39, 0x02, 0x72, 0xdb, 0xb6, 0x94, 0xf8, 0xf8, 0x9b, 0x66, 0xe3, 0xdb,
    0x69, 0xc1, 0x71, 0x1a, 0x10, 0xf2, 0x66, 0x48, 0xec, 0xbf, 0x00, 0xea,
    0x01, 0x03, 0x6e, 0x0c, 0x33, 0x8c, 0x8d, 0x75, 0xce, 0xf4, 0x30, 0xe3,
    0xa7, 0x92, 0x66, 0xef, 0xaf, 0x73, 0x49, 0x81, 0x58, 0xf4, 0x7b, 0x53,
    0xbb, 0x27, 0x53, 0xf4, 0xcf, 0x05, 0x84, 0x1c, 0xd5, 0x0e, 0x76, 0x99,
    0x43, 0x15, 0xe8, 0xf1, 0xfe, 0x7f, 0x5e, 0xd0, 0xd9, 0x00, 0x44, 0x04,
    0xf6, 0xbc, 0x87, 0x74, 0xd5, 0x08, 0xe5, 0x9b, 0x05, 0x48, 0x7f, 0x37,
    0x7d, 0x3a, 0xcb, 0xb7, 0xb6, 0x2f, 0xf1, 0x95, 0x58, 0x5c, 0x70, 0x16,
    0xe7, 0x69, 0xc6, 0x44, 0x87, 0x26, 0x07, 0xb8, 0xa6, 0x97, 0x9d, 0x16,
    0x95, 0x33, 0x4e, 0x40, 0x16, 0x5a, 0x83, 0x31, 0xa4, 0x4e, 0x71, 0x9b,
    0xc4, 0xbd, 0x3c, 0x6b, 0xac, 0x74, 0x91, 0x10, 0x81, 0x3d, 0xe4, 0x0e,
    0xb4, 0x18, 0xd3, 0xc4, 0xab, 0xc6, 0x71, 0x46, 0xa1, 0x0e, 0x70, 0x43,
    0x68, 0x7b, 0x25, 0xbf, 0x07, 0x32, 0x58, 0xf0, 0x09, 0x4a, 0x39, 0x33,
    0xdb, 0x38, 0x36, 0x6c, 0xb9, 0x7f, 0x78, 0x39, 0x05, 0x08, 0x06, 0x41,
    0x24, 0x64, 0x6c, 0xaa, 0x7f, 0x86, 0xf4, 0x74, 0xd9, 0xdc, 0x1c, 0xdc,
    0xc5, 0xa6, 0x1f, 0xad, 0xe6, 0xbf, 0x59, 0xa2, 0x7e, 0x71, 0x32, 0xa5,
    0x33, 0x0a, 0x3e, 0xee, 0x3c, 0xa8, 0xa6, 0xd0, 0xd2, 0x62, 0xcd, 0x4c,
    0xc6, 0xef, 0x90, 0x81, 0xc1, 0xe7, 0x65, 0x4e, 0xe7, 0xa2, 0xa5, 0x98,
    0x23, 0x1b, 0xdb, 0x95, 0xc4, 0x73, 0x85, 0x44, 0x62, 0x72, 0x4b, 0x88,
    0xce, 0x78, 0x1d, 0x60, 0xe8, 0x63, 0xfd, 0xc4, 0x7f, 0x72, 0x97, 0xe2,
    0xe7, 0x54, 0xd1, 0x73, 0x21, 0x79, 0x16, 0xfa, 0xdb, 0x21, 0x0f, 0x7f,
    0xd6, 0xb3, 0x22, 0x83, 0xb5, 0x9f, 0xa8, 0x72, 0x20, 0x05, 0xbb, 0xc4,
    0x9f, 0x64, 0x24, 0xcd, 0xfe, 0x39, 0x37, 0xa4, 0x04, 0xdd, 0xe0, 0xdd,
    0x7a, 0xa3, 0x54, 0xca, 0xb2, 0x54, 0xde, 0xdf, 0x17, 0x56, 0x9b, 0x0e,
    0x81, 0x74, 0x90, 0x4a, 0x07, 0xe4, 0x46, 0x97, 0x0c, 0x07, 0x8b, 0xbe,
    0x9d, 0x85, 0x53, 0xa5, 0x46, 0x90, 0xcb, 0x0b, 0x79, 0x3d, 0xaf, 0xff,
    0xb4, 0x12, 0x8a, 0xe0, 0xc8, 0xc3, 0x8f, 0x0b, 0x81, 0x85, 0x38, 0x58,
    0x23, 0xa7, 0x03, 0x49, 0x76, 0x99, 0x5a, 0xfd, 0xe0, 0xec, 0x8c, 0xeb,
    0xe9, 0x7c, 0xc4, 0x7f, 0x9b, 0x1f, 0x18, 0xdc, 0xbd, 0x91, 0xbb, 0x70,
    0x77, 0xb5, 0x92, 0x25, 0x5d, 0xf1, 0x9f, 0xe6, 0x1b, 0x2c, 0x45, 0x03,
    0xe7, 0xbc, 0xd0, 0x41, 0x08, 0x4b, 0xf9, 0x09, 0xf3, 0xee, 0x14, 0x16,
    0x75, 0x48, 0xc4, 0x8e, 0x8f, 0xd2, 0x21, 0x87, 0xf5, 0x40, 0xe2, 0xfe,
    0xd2, 0x9c, 0xbc, 0xdd, 0x8c, 0xc8, 0x4d, 0x81, 0x57, 0x0b, 0x56, 0xca,
    0xfc, 0xa8, 0xeb, 0xf4, 0x7c, 0x6a, 0x28, 0x23, 0x1e, 0xb7, 0xa1, 0x16,
    0x81, 0x7b, 0xae, 0xc5, 0xf7, 0xfa, 0x6c, 0xfe, 0x28, 0xc2, 0x59, 0xf3,
    0x38, 0x50, 0xc0, 0x31, 0x6f, 0xb5, 0xfb, 0xcd, 0x98, 0xa2, 0x94, 0x37,
    0xce, 0x98, 0x5d, 0x0a, 0xe7, 0x44, 0x1b, 0xca, 0x07, 0xba, 0xae, 0xa0,
    0x90, 0x7f, 0x33, 0x58, 0xa5, 0xfc, 0xd3, 0x72, 0x4d, 0x57, 0x8c, 0x32,
    0x57, 0x94, 0xdf, 0xa9, 0x97, 0x0d, 0xb2, 0x5c, 0x47, 0x82, 0xb0, 0xb6,
    0x7d, 0xfc, 0xbd, 0x64, 0xb3, 0xc0, 0x50, 0xa1, 0x32, 0xe8, 0xaf, 0x5b,
    0xf3, 0x63, 0x47, 0xe4, 0x85, 0x4f, 0x77, 0x7f, 0xd2, 0xeb, 0x4d, 0xa3,
    0x0f, 0x54, 0x90, 0xc9, 0xcb, 0xcd, 0x57, 0xd8, 0xb0, 0x68, 0xb6, 0x1c,
    0x7f, 0x10, 0xac, 0xa2, 0x25, 0x17, 0x68, 0xdb, 0x5c, 0x37, 0xdb, 0xcc,
    0x75, 0xe9, 0xa0, 0x4f, 0xf3, 0x45, 0x8f, 0x56, 0xbf, 0x28, 0xd1, 0xbb,
    0x21, 0xbf, 0x0f, 0x58, 0xe0, 0x4c, 0xa3, 0x81, 0xdb, 0x0b, 0x7a, 0x3d,
    0xa9, 0xd5, 0x04, 0x34, 0xeb, 0x69, 0x3c, 0xd1, 0x14, 0x62, 0xc1, 0xe8,
    0x77, 0xd1, 0x00, 0x13, 0x87, 0x18, 0x66, 0x84, 0x42, 0x58, 0x36, 0x17,
    0x5f, 0x10, 0x9c, 0xfa, 0x51, 0x26, 0x3c, 0x7f, 0xca, 0xb7, 0xaa, 0x1a,
    0xcb, 0xb5, 0xa0, 0xfe, 0x7b, 0xb3, 0x3c, 0x7f, 0xaa, 0xfb, 0x9e, 0xc8,
    0xe0, 0x47, 0x5b, 0xaf, 0xd8, 0x40, 0x32, 0x09, 0x9d, 0x1c, 0xf8, 0x9f,
    0x22, 0x46, 0xc3, 0x11, 0x7f, 0x03, 0x87, 0x92, 0x54, 0xe7, 0x57, 0xdb,
    0x98, 0xfa, 0x01, 0x02, 0xa3, 0xb8, 0xde, 0x41, 0x17, 0x65, 0x9a, 0x60,
    0x62, 0x8e, 0xcb, 0x71, 0xbf, 0x1e, 0x98, 0x3a, 0x7f, 0xde, 0xf4, 0x7a,
    0x5c, 0x18, 0x38, 0xa9, 0x8d, 0x39, 0xa1, 0x77, 0x18, 0x2a, 0xa0, 0x97,
    0xe5, 0x6b, 0x20, 0x74, 0xef, 0x03, 0x11, 0xeb, 0x49, 0xa1, 0x97, 0xaf,
    0xf9, 0x76, 0x22, 0x4d, 0x42, 0xe4, 0x77, 0xfc, 0x71, 0x92, 0xad, 0x3c,
    0xc0, 0x7f, 0x41, 0xc6, 0xc5, 0x61, 0xa7, 0xf1, 0x09, 0x45, 0x69, 0x52,
    0xbf, 0x0d, 0x60, 0xd0, 0xbb, 0xa8, 0x75, 0xcc, 0xff, 0x1e, 0xf8, 0x3c,
    0x11, 0x0f, 0x49, 0xe3, 0xb7, 0x4d, 0x3c, 0x31, 0x82, 0x68, 0x11, 0x7f,
    0x88, 0x50, 0xf5, 0x9a, 0xd9, 0x3b, 0x63, 0x9e, 0x73, 0x7c, 0x2d, 0x9e,
    0x8e, 0xaf, 0xe4, 0xff, 0x7f, 0x60, 0xef, 0x44, 0x9b, 0x48, 0xb8, 0xba,
    0xdb, 0xfa, 0x05, 0xa5, 0x38, 0x8b, 0xfe, 0x99, 0xd1, 0x40, 0x66, 0x47,
    0x35, 0xcc, 0xb8, 0x55, 0xeb, 0xaa, 0x64, 0x69, 0xb4, 0x8f, 0xfb, 0x4e,
    0x3f, 0x7f, 0x5c, 0x5e, 0x9e, 0x02, 0xa9, 0x38, 0xe1, 0xf1, 0x4a, 0x4b,
    0x81, 0x22, 0x9d, 0x5b, 0x7c, 0x99, 0xcd, 0xf3, 0xfc, 0xb2, 0xc5, 0x2a,
    0x83, 0xa7, 0xfb, 0x4b, 0x4f, 0x9b, 0x22, 0x1a, 0x7f, 0x05, 0xec, 0xd5,
    0x8f, 0xc9, 0xac, 0x57, 0xd5, 0xa0, 0xf1, 0x4c, 0x5d, 0x16, 0xc3, 0x28,
    0x5d, 0x79, 0xdf, 0x03, 0x88, 0x65, 0x86, 0x92, 0x14, 0xb9, 0xc5, 0x53,
    0x55, 0x82, 0x39, 0xe6, 0x9f, 0x9d, 0x7f, 0xee, 0x27, 0xb0, 0x9e, 0x0f,
    0x65, 0x31, 0xba, 0xe0, 0xb4, 0x5c, 0x31, 0x28, 0xc2, 0xc6, 0x14, 0x05,
    0xeb, 0x9e, 0xd7, 0xe7, 0xe4, 0x00, 0x28, 0x3c, 0xa6, 0xf6, 0xcd, 0xb9,
    0x6f, 0xf4, 0x8f, 0x47, 0xce, 0xa7, 0xad, 0xa3, 0x38, 0xbd, 0xc3, 0x63,
    0x23, 0xfc, 0xdd, 0x4e, 0xd9, 0x9f, 0x98, 0x67, 0x81, 0x7f, 0x14, 0x4a,
    0xa1, 0xa4, 0x38, 0x13, 0xe3, 0x9a, 0x7c, 0x40, 0x94, 0x03, 0x07, 0xf1,
    0x17, 0x1f, 0xe5, 0x23, 0x5c, 0xd5, 0x15, 0xc0, 0x7f, 0x57, 0xf2, 0x4e,
    0x14, 0xed, 0x57, 0x21, 0x8f, 0x5c, 0x46, 0x26, 0x13, 0x4a, 0xba, 0xed,
    0xdb, 0xd2, 0x66, 0x06, 0x7f, 0x3a, 0x16, 0xc0, 0x52, 0x4c, 0x3c, 0x3e,
    0x67, 0x5e, 0x65, 0x1d, 0x15, 0x79, 0x04, 0xa0, 0x7c, 0xd7, 0x50, 0x84,
    0x9d, 0xc3, 0xd8, 0x20, 0x58, 0xfb, 0x7a, 0xc3, 0x6e, 0x7f, 0x02, 0x8b,
    0x54, 0xef, 0x3d, 0x6a, 0x22, 0xce, 0x1e, 0xa3, 0xff, 0xbf, 0x4b, 0x0f,
    0x9e, 0xa9, 0x51, 0xa5, 0x50, 0x9b, 0x6c, 0x2b, 0xf5, 0xfe, 0x3d, 0x22,
    0xff, 0x6e, 0x90, 0x30, 0xac, 0xb8, 0xbf, 0xaa, 0x4e, 0x7e, 0xdf, 0xb0,
    0x6f, 0x0b, 0xa7, 0xd9, 0x7e, 0x60, 0xaa, 0xe6, 0xb0, 0x7b, 0x69, 0xc3,
    0xb9, 0x59, 0xd4, 0x99, 0x87, 0x0d, 0x5f, 0x03, 0x7f, 0x5d, 0x0b, 0xc3,
    0x43, 0x4b, 0xbb, 0x2f, 0x48, 0xa6, 0xb9, 0xd7, 0xe8, 0x99, 0xec, 0x32,
    0xc2, 0x68, 0x4c, 0x60, 0x51, 0x8b, 0x87, 0x83, 0x93, 0x7d, 0xc6, 0x57,
    0x00, 0xa9, 0x54, 0x7f, 0x6e, 0xf6, 0x93, 0x99, 0xba, 0xf0, 0xff, 0xff,
    0x04, 0x00, 0x00, 0x00, 0x80, 0x0d, 0x00, 0x00, 0x52, 0x80, 0xa8, 0xbd,
    0x86, 0x0d, 0xfb, 0x3d, 0x54, 0x6e, 0xb3, 0xbd, 0xcd, 0x8f, 0x4c, 0x3e,
    0x5c, 0xdf, 0x0a, 0xbe, 0x7a, 0xb6, 0xfd, 0x3d, 0xf3, 0x06, 0x29, 0x3e,
    0x74, 0x71, 0x32, 0xbe, 0xf0, 0x66, 0x98, 0xbd, 0xab, 0xce, 0x27, 0x3e,
    0xb8, 0xfd, 0x90, 0xbd, 0xd0, 0x51, 0xb4, 0xbd, 0x03, 0xb4, 0xda, 0xbd,
    0x8f, 0x92, 0x52, 0xbe, 0xd2, 0xb6, 0xd5, 0x3d, 0xc8, 0x79, 0x32, 0xbd,
    0x3a, 0xf2, 0x8f, 0xbd, 0xf2, 0xa8, 0x9c, 0x3d, 0xc4, 0x98, 0x02, 0xbd,
    0xe6, 0x7c, 0xf4, 0x3d, 0x7a, 0xf8, 0xeb, 0x3d, 0xb1, 0x47, 0x27, 0x3e,
    0x08, 0xe0, 0x5a, 0xbe, 0xed, 0x6d, 0x04, 0x3e, 0xa3, 0x10, 0x17, 0x3e,
    0xac, 0x39, 0xa8, 0xbd, 0x70, 0xd6, 0x12, 0xbe, 0x65, 0xe7, 0x47, 0x3e,
    0x1b, 0x88, 0x16, 0x3e, 0x23, 0xba, 0x10, 0x3e, 0x4e, 0x1d, 0x84, 0x3d,
    0xb6, 0x60, 0x81, 0x3d, 0x3f, 0x6b, 0x02, 0x3e, 0xa0, 0x82, 0xd6, 0xbc,
    0x33, 0xb2, 0x23, 0xbe, 0xca, 0x8d, 0xff, 0x3d, 0x1e, 0x30, 0xf8, 0x3d,
    0x5c, 0x20, 0xb3, 0xbd, 0x00, 0x07, 0x69, 0xbb, 0x3d, 0xa5, 0x0d, 0x3e,
    0x18, 0x29, 0xa7, 0xbc, 0xee, 0x08, 0xba, 0x3d, 0xa0, 0x6b, 0x0f, 0xbc,
    0x50, 0x8d, 0x62, 0xbc, 0x47, 0x42, 0x51, 0x3e, 0xa6, 0x4e, 0xdf, 0xbd,
    0x5a, 0x5e, 0xe9, 0x3d, 0x0c, 0x12, 0x48, 0xbe, 0x3e, 0xa8, 0xf2, 0x3d,
    0xe7, 0xf9, 0x5a, 0x3e, 0x48, 0x69, 0xab, 0xbc, 0xb8, 0x93, 0x4d, 0xbe,
    0x58, 0xc5, 0x28, 0xbe, 0x66, 0x33, 0xaa, 0xbd, 0x88, 0x1b, 0xc3, 0x3c,
    0x03, 0x37, 0xd4, 0xbd, 0xa6, 0x26, 0xdc, 0x3d, 0x80, 0x85, 0x81, 0x3a,
    0x2c, 0x07, 0x52, 0xbd, 0x51, 0xfb, 0x34, 0x3e, 0x2e, 0x69, 0x61, 0xbe,
    0x1d, 0x8c, 0x00, 0xbe, 0xff, 0xa8, 0xda, 0xbd, 0x91, 0x9b, 0x12, 0x3e,
    0xe5, 0x80, 0x3c, 0x3e, 0xdc, 0xc8, 0x02, 0x3d, 0xd4, 0x79, 0x81, 0xbd,
    0x67, 0xfc, 0x14, 0x3e, 0xcb, 0xf5, 0x2f, 0x3e, 0x88, 0xaf, 0x2d, 0xbe,
    0x6c, 0x9a, 0x69, 0xbd, 0x00, 0x01, 0x5a, 0x3a, 0xce, 0x12, 0x25, 0xbe,
    0xc0, 0x12, 0x4b, 0x3c, 0xb9, 0xe8, 0x4f, 0x3e, 0x38, 0x64, 0xe9, 0xbc,
    0x02, 0xf1, 0xa0, 0xbd, 0x94, 0x77, 0xb0, 0xbd, 0x08, 0xd4, 0xdb, 0xbc,
    0xde, 0xc5, 0x59, 0xbe, 0x86, 0x68, 0x0c, 0xbe, 0xbd, 0x27, 0x11, 0x3e,
    0xba, 0xda, 0x8a, 0x3d, 0x56, 0xc3, 0xad, 0xbd, 0x74, 0x19, 0x73, 0x3d,
    0x74, 0xec, 0x70, 0x3d, 0x8f, 0x6d, 0x5a, 0xbe, 0x40, 0x88, 0xdd, 0xbd,
    0x5c, 0x70, 0x4d, 0x3d, 0xc2, 0x0b, 0x39, 0xbe, 0xc9, 0x69, 0x20, 0x3e,
    0x2d, 0x2b, 0x13, 0x3e, 0x01, 0x29, 0x48, 0x3e, 0x1a, 0xd9, 0x2e, 0xbe,
    0xea, 0x2c, 0xea, 0xbd, 0x3c, 0x36, 0x28, 0xbe, 0x34, 0x5c, 0xed, 0xbd,
    0x9b, 0xed, 0x55, 0xbe, 0x10, 0x48, 0x7c, 0xbd, 0xa8, 0xe6, 0x62, 0xbd,
    0x44, 0x8e, 0x54, 0xbe, 0x4c, 0x47, 0x49, 0xbd, 0x3c, 0xd2, 0x28, 0xbe,
    0xff, 0x5d, 0x2a, 0x3e, 0xd4, 0x41, 0x5a, 0x3d, 0x44, 0x82, 0x5c, 0x3d,
    0x0d, 0x22, 0x24, 0xbe, 0x23, 0xb5, 0x33, 0x3e, 0x9a, 0xb0, 0x92, 0xbd,
    0xc6, 0x20, 0xfc, 0xbd, 0x28, 0x01, 0x30, 0xbe, 0x5e, 0xf0, 0x8d, 0x3d,
    0xcd, 0xe1, 0x3e, 0xbe, 0xf1, 0xaa, 0x61, 0xbe, 0x00, 0x52, 0x55, 0xbd,
    0x70, 0xd7, 0x9e, 0x3c, 0x9a, 0x8e, 0x86, 0x3d, 0x06, 0xbb, 0xa2, 0xbd,
    0x6d, 0xbd, 0x19, 0x3e, 0xc2, 0xef, 0x8e, 0x3d, 0x78, 0x79, 0xe0, 0xbc,
    0x90, 0x1e, 0xe7, 0xbd, 0xe5, 0xdb, 0x49, 0xbe, 0xa2, 0x92, 0xa6, 0x3d,
    0x82, 0xb5, 0xde, 0xbd, 0xa8, 0x70, 0xe0, 0x3c, 0xd2, 0xfe, 0xa8, 0xbd,
    0x96, 0x93, 0x9d, 0xbd, 0x6a, 0xe1, 0xc7, 0x3d, 0xc6, 0x73, 0x1f, 0xbe,
    0xe7, 0xbb, 0x2c, 0x3e, 0x99, 0x28, 0x0f, 0x3e, 0xf5, 0x4e, 0x1a, 0x3e,
    0xf7, 0x80, 0x41, 0x3e, 0x9a, 0xc3, 0xa8, 0xbd, 0x84, 0xbb, 0x1a, 0xbd,
    0x76, 0x9e, 0xd4, 0x3d, 0x80, 0xb0, 0x7a, 0xbb, 0x47, 0x80, 0x18, 0x3e,
    0x8f, 0xfb, 0x0f, 0x3e, 0x02, 0xb8, 0xd2, 0x3d, 0x26, 0x5a, 0xf6, 0xbd,
    0xab, 0xf9, 0x43, 0x3e, 0x59, 0xd5, 0x0b, 0x3e, 0x18, 0x87, 0xe4, 0x3c,
    0xd1, 0xfe, 0x43, 0x3e, 0x1a, 0x70, 0xd0, 0x3d, 0x85, 0x38, 0x51, 0xbe,
    0x46, 0x60, 0x5d, 0xbe, 0x1c, 0x0e, 0x5b, 0xbe, 0x6a, 0x1a, 0x25, 0xbe,
    0x20, 0x6b, 0x29, 0xbc, 0x15, 0x29, 0x1a, 0xbe, 0x80, 0x02, 0x47, 0xbc,
    0x75, 0x38, 0x2b, 0x3e, 0xe4, 0xe7, 0x26, 0x3d, 0xaf, 0x74, 0x0a, 0xbe,
    0xc3, 0xa1, 0x56, 0x3e, 0x78, 0xfa, 0xa8, 0xbc, 0x96, 0x03, 0x0f, 0xbe,
    0x36, 0xec, 0x0a, 0xbe, 0x49, 0x27, 0x08, 0x3e, 0xee, 0xef, 0x10, 0xbe,
    0x60, 0xcc, 0xd2, 0xbb, 0x49, 0x78, 0xe3, 0xbd, 0x19, 0x80, 0xd5, 0xbd,
    0x3d, 0x55, 0x21, 0x3e, 0x44, 0xa2, 0x13, 0x3d, 0xc1, 0x7a, 0xe1, 0xbd,
    0x80, 0x00, 0x51, 0x3b, 0x97, 0x44, 0x44, 0x3e, 0xd9, 0x76, 0x0f, 0x3e,
    0x24, 0x82, 0x1a, 0x3d, 0xcb, 0x40, 0xce, 0xbd, 0x6c, 0x77, 0x1e, 0xbe,
    0xcc, 0xb8, 0x95, 0xbd, 0x3c, 0xb2, 0x8c, 0xbd, 0x8b, 0x4d, 0x20, 0xbe,
    0x31, 0x53, 0x0f, 0x3e, 0x5d, 0x69, 0x57, 0x3e, 0xe6, 0x2f, 0x5e, 0xbe,
    0x08, 0x30, 0x8d, 0xbc, 0xde, 0x87, 0x9b, 0xbd, 0x60, 0x0e, 0x99, 0x3b,
    0xd0, 0xc1, 0xc4, 0xbc, 0x79, 0x58, 0xe9, 0xbd, 0x76, 0x08, 0x95, 0xbd,
    0xf5, 0x72, 0x49, 0xbe, 0x3a, 0x1b, 0xb4, 0x3d, 0x04, 0xe6, 0xe5, 0xbd,
    0xbc, 0x44, 0x58, 0xbd, 0x54, 0xa9, 0x34, 0x3d, 0xd9, 0x0d, 0xdb, 0xbd,
    0x37, 0x87, 0x29, 0x3e, 0x40, 0x7c, 0x4d, 0x3c, 0xc0, 0x89, 0xb6, 0xbc,
    0x6a, 0x31, 0xb2, 0xbd, 0xc0, 0xfe, 0x56, 0xbd, 0xc2, 0xcc, 0x9f, 0x3d,
    0x26, 0x2f, 0xa3, 0x3d, 0x37, 0x70, 0x1c, 0x3e, 0x2e, 0x97, 0x28, 0xbe,
    0x78, 0x31, 0xa9, 0x3c, 0xed, 0x21, 0xc7, 0xbd, 0x74, 0xa2, 0x3c, 0xbe,
    0x1a, 0xb2, 0x1c, 0xbe, 0x12, 0x85, 0xa4, 0x3d, 0xc8, 0x89, 0x19, 0xbd,
    0x1b, 0x93, 0x26, 0x3e, 0xd2, 0xf3, 0xd8, 0x3d, 0x52, 0x17, 0x17, 0xbe,
    0x54, 0xdd, 0xd5, 0xbd, 0xc8, 0xd3, 0x1f, 0xbe, 0x60, 0xf3, 0x15, 0xbd,
    0x26, 0x22, 0xe7, 0x3d, 0x3a, 0x12, 0x5d, 0xbe, 0xee, 0x55, 0xf0, 0x3d,
    0xd2, 0xaf, 0x36, 0xbe, 0x4c, 0xa4, 0x5c, 0x3d, 0x0e, 0xdf, 0x5c, 0xbe,
    0x6d, 0x02, 0x37, 0xbe, 0x3a, 0x77, 0xe2, 0x3d, 0xfb, 0x73, 0x1d, 0x3e,
    0x00, 0xa2, 0x66, 0xbd, 0xe2, 0xb7, 0xfd, 0x3d, 0x04, 0x99, 0x14, 0x3d,
    0x76, 0x60, 0xc1, 0x3d, 0x00, 0xd6, 0xb4, 0xbd, 0x18, 0xcd, 0x3d, 0xbd,
    0x31, 0x01, 0x05, 0x3e, 0xbe, 0x67, 0x0e, 0xbe, 0x00, 0x48, 0x63, 0xba,
    0x6c, 0x3c, 0xe9, 0xbd, 0xf5, 0x22, 0x30, 0x3e, 0xf6, 0x5b, 0xb6, 0x3d,
    0x16, 0x7c, 0xc6, 0x3d, 0x2b, 0xb9, 0x1c, 0x3e, 0x25, 0xd2, 0x47, 0x3e,
    0x74, 0x83, 0x7d, 0x3d, 0x37, 0x95, 0xd8, 0xbd, 0xf7, 0x27, 0xd4, 0xbd,
    0xa2, 0xe2, 0xb6, 0xbd, 0x24, 0x2d, 0x4b, 0xbd, 0x80, 0x1c, 0x86, 0xbd,
    0x39, 0x14, 0x1c, 0x3e, 0x00, 0x54, 0x08, 0x3a, 0x44, 0x7c, 0x59, 0xbd,
    0x8a, 0xba, 0xfb, 0xbd, 0xe0, 0x4e, 0xb3, 0xbb, 0x89, 0xe3, 0x4a, 0x3e,
    0x06, 0xee, 0x59, 0xbe, 0xb4, 0x64, 0x28, 0x3d, 0x91, 0xec, 0x10, 0x3e,
    0x86, 0x80, 0xfa, 0x3d, 0x23, 0x78, 0x1c, 0x3e, 0x6e, 0xa6, 0xf7, 0x3d,
    0xe8, 0xc7, 0xc3, 0xbc, 0x20, 0x97, 0xb0, 0x3c, 0x2a, 0x5c, 0xa2, 0xbd,
    0xe5, 0xaa, 0x23, 0xbe, 0xac, 0x76, 0x49, 0x3d, 0x97, 0x75, 0x4f, 0x3e,
    0xf0, 0x12, 0x71, 0xbd, 0x14, 0x57, 0xee, 0xbd, 0x2a, 0xe1, 0x85, 0x3d,
    0xfc, 0x22, 0x18, 0x3d, 0x00, 0xeb, 0x5f, 0x3c, 0x40, 0x35, 0xb1, 0xbb,
    0x56, 0x82, 0xb2, 0xbd, 0x2c, 0x41, 0x25, 0xbe, 0x7e, 0xcb, 0xfb, 0xbd,
    0x50, 0xbf, 0x0e, 0xbc, 0x1a, 0xc1, 0xf7, 0x3d, 0x72, 0x4c, 0xd5, 0x3d,
    0x08, 0x00, 0x7d, 0xbd, 0x8e, 0xd3, 0xb9, 0xbd, 0x34, 0xa0, 0x05, 0x3d,
    0xe4, 0xcf, 0x4d, 0x3d, 0x32, 0xd2, 0x3f, 0xbe, 0x74, 0x25, 0x52, 0xbe,
    0x26, 0x6f, 0xb5, 0x3d, 0xe4, 0x96, 0x72, 0x3d, 0xe0, 0x3a, 0x4b, 0xbe,
    0x30, 0x5d, 0x72, 0xbd, 0xa7, 0x51, 0x11, 0x3e, 0x16, 0x04, 0xa7, 0x3d,
    0x80, 0x65, 0x91, 0x3a, 0x6c, 0xdf, 0x08, 0x3d, 0xad, 0x2b, 0xd2, 0xbd,
    0xb7, 0xee, 0xe2, 0xbd, 0x36, 0x70, 0x97, 0x3d, 0x2c, 0x0a, 0x2d, 0xbd,
    0xa0, 0x29, 0x22, 0xbc, 0x1c, 0xb5, 0x06, 0x3d, 0x21, 0xee, 0x3b, 0x3e,
    0x40, 0xb1, 0x92, 0x3c, 0xd9, 0xe8, 0x34, 0x3e, 0x52, 0x74, 0xdd, 0x3d,
    0x8c, 0xc3, 0x72, 0xbd, 0xb6, 0x4f, 0xb4, 0x3d, 0x10, 0xd8, 0x2b, 0xbd,
    0x83, 0xbc, 0x20, 0x3e, 0xd2, 0xab, 0x9b, 0x3d, 0xbf, 0x34, 0x23, 0x3e,
    0x8c, 0x2f, 0x0c, 0x3d, 0xd1, 0xac, 0xfe, 0xbd, 0xb0, 0x0f, 0x1e, 0x3c,
    0x45, 0x8f, 0x05, 0x3e, 0xbd, 0x3c, 0x1e, 0x3e, 0x58, 0x93, 0x49, 0xbe,
    0x5b, 0x88, 0x60, 0xbe, 0xc4, 0x61, 0x7a, 0x3d, 0x4f, 0xcf, 0x28, 0xbe,
    0x44, 0x55, 0x4e, 0x3d, 0xf1, 0xd8, 0x4b, 0x3e, 0x44, 0x1c, 0x45, 0x3d,
    0x30, 0xe6, 0x95, 0xbc, 0xf3, 0xcc, 0x54, 0xbe, 0x1d, 0x92, 0x50, 0xbe,
    0xd7, 0x04, 0x19, 0x3e, 0x49, 0xfe, 0x28, 0x3e, 0x64, 0x86, 0x42, 0x3d,
    0xb4, 0xca, 0x6d, 0x3d, 0x72, 0xce, 0x45, 0xbe, 0x1c, 0x04, 0x10, 0x3d,
    0x8a, 0xc1, 0xd7, 0x3d, 0xd3, 0xcc, 0xe0, 0xbd, 0x3f, 0x44, 0x52, 0x3e,
    0x4b, 0x09, 0x41, 0x3e, 0xb5, 0x09, 0x36, 0x3e, 0x04, 0xb4, 0xfa, 0xbd,
    0x1a, 0x8e, 0x17, 0xbe, 0x89, 0x40, 0x2f, 0xbe, 0xc5, 0xcf, 0x0b, 0xbe,
    0xcb, 0x7a, 0xe6, 0xbd, 0xad, 0x2f, 0x57, 0x3e, 0x57, 0xaf, 0x56, 0x3e,
    0xd7, 0x69, 0x20, 0x3e, 0x79, 0xe0, 0xe6, 0xbd, 0x4c, 0xab, 0x76, 0x3d,
    0x48, 0x32, 0xda, 0xbd, 0x20, 0xe9, 0x9d, 0x3c, 0x60, 0x24, 0xcb, 0xbb,
    0xe0, 0x58, 0x1b, 0xbd, 0x84, 0x65, 0x0d, 0xbd, 0x14, 0x57, 0x44, 0x3d,
    0xb7, 0x78, 0x44, 0x3e, 0x34, 0x28, 0x5d, 0xbd, 0xce, 0x15, 0xf5, 0x3d,
    0x46, 0x89, 0x1e, 0xbe, 0xc0, 0xb1, 0x35, 0x3c, 0x7e, 0xfc, 0x4d, 0xbe,
    0xc2, 0x68, 0xb8, 0xbd, 0x90, 0x39, 0x93, 0xbd, 0xb6, 0xe0, 0x80, 0x3d,
    0xf4, 0x7e, 0xde, 0xbd, 0x1e, 0xff, 0x84, 0xbd, 0xb3, 0x39, 0x37, 0x3e,
    0xa6, 0x23, 0xac, 0x3d, 0xfa, 0x87, 0x0b, 0xbe, 0x1c, 0x17, 0x0c, 0xbe,
    0xc8, 0xaf, 0x31, 0xbe, 0xea, 0x5c, 0x98, 0x3d, 0x1c, 0xd0, 0x49, 0x3d,
    0x00, 0x4c, 0x12, 0xbc, 0xf6, 0x43, 0xfa, 0x3d, 0x27, 0xf6, 0x0c, 0x3e,
    0x10, 0xbd, 0x91, 0x3c, 0xc5, 0xec, 0x52, 0x3e, 0x96, 0x1b, 0xc2, 0x3d,
    0x10, 0x30, 0x9b, 0xbc, 0x87, 0x5e, 0x4b, 0x3e, 0x05, 0xac, 0x1d, 0x3e,
    0xa8, 0xdc, 0xc9, 0xbd, 0xcb, 0x08, 0x5b, 0x3e, 0x08, 0xc7, 0x19, 0xbe,
    0x1e, 0x32, 0xee, 0x3d, 0x9f, 0x29, 0x59, 0xbe, 0x9c, 0x59, 0x53, 0x3d,
    0x7c, 0x02, 0x44, 0xbe, 0xc3, 0x28, 0x26, 0x3e, 0x8e, 0x12, 0xda, 0x3d,
    0x9f, 0x93, 0x38, 0xbe, 0x32, 0xcb, 0xd6, 0x3d, 0xf9, 0x52, 0x42, 0x3e,
    0x46, 0x8a, 0x9f, 0xbd, 0x64, 0x34, 0x0e, 0xbe, 0x33, 0x6d, 0x40, 0xbe,
    0x18, 0x29, 0x11, 0xbe, 0xd6, 0x3c, 0xaa, 0x3d, 0x92, 0x61, 0xc4, 0x3d,
    0xd6, 0x18, 0x59, 0xbe, 0x80, 0xb5, 0x68, 0xbd, 0xa1, 0x01, 0x1a, 0x3e,
    0x72, 0xb2, 0xad, 0xbd, 0xe3, 0x49, 0x4e, 0x3e, 0xf6, 0x87, 0xad, 0x3d,
    0xdd, 0xba, 0x4b, 0x3e, 0x19, 0xa0, 0x0e, 0x3e, 0xc0, 0x3c, 0x4c, 0xbd,
    0x56, 0x29, 0x12, 0xbe, 0x1e, 0xb5, 0x8e, 0x3d, 0x09, 0x97, 0x4f, 0x3e,
    0x54, 0x88, 0xc4, 0xbd, 0x00, 0x64, 0x15, 0x3c, 0x1f, 0xe0, 0x46, 0x3e,
    0xf5, 0x86, 0x40, 0xbe, 0x5f, 0x79, 0x3e, 0x3e, 0xf8, 0xd5, 0x8f, 0xbc,
    0xf2, 0xfa, 0xfb, 0x3d, 0x30, 0x23, 0x50, 0x3c, 0xdd, 0xe9, 0x5a, 0xbe,
    0x7c, 0xb8, 0xbe, 0xbd, 0x39, 0xc4, 0x46, 0x3e, 0x97, 0xcd, 0x22, 0xbe,
    0x38, 0x03, 0x4b, 0xbe, 0x0c, 0x43, 0x62, 0xbd, 0xcc, 0x69, 0x02, 0xbe,
    0x5e, 0xc1, 0xe4, 0x3d, 0xc5, 0x85, 0x22, 0x3e, 0x86, 0x1e, 0x88, 0x3d,
    0x4b, 0xc9, 0x10, 0xbe, 0x54, 0x9c, 0x03, 0xbe, 0x29, 0x65, 0x0b, 0x3e,
    0x44, 0x41, 0x55, 0xbd, 0x2f, 0xc1, 0x57, 0x3e, 0x78, 0xc1, 0xdf, 0xbd,
    0xf8, 0xc3, 0x2d, 0xbd, 0x24, 0x63, 0x23, 0xbe, 0xc0, 0x5b, 0x26, 0xbb,
    0x6b, 0x22, 0x48, 0x3e, 0x9e, 0x90, 0xe5, 0x3d, 0x20, 0xfa, 0x17, 0xbd,
    0x00, 0x98, 0xab, 0xbc, 0x34, 0x37, 0x60, 0xbe, 0x9e, 0x85, 0xee, 0x3d,
    0x92, 0x27, 0x91, 0x3d, 0x4e, 0x9d, 0xe9, 0x3d, 0xd3, 0xba, 0x10, 0x3e,
    0x5e, 0xa6, 0x8c, 0x3d, 0xdb, 0xe2, 0x52, 0x3e, 0xd1, 0x46, 0x5b, 0x3e,
    0xd0, 0x90, 0x4c, 0x3c, 0x66, 0x4e, 0xbc, 0xbd, 0x0c, 0xa3, 0xab, 0xbd,
    0xb8, 0x9b, 0xf0, 0xbc, 0x2a, 0x68, 0xbd, 0xbd, 0x6e, 0x93, 0xda, 0x3d,
    0x21, 0x79, 0xd7, 0xbd, 0xd6, 0x8f, 0x88, 0x3d, 0x00, 0xb0, 0x08, 0x38,
    0xa0, 0xb7, 0x3b, 0xbc, 0x9b, 0xcf, 0x5d, 0x3e, 0xd3, 0x8e, 0x4e, 0x3e,
    0xb4, 0x84, 0x38, 0xbd, 0xd4, 0x70, 0x43, 0x3d, 0x68, 0x59, 0xdc, 0x3c,
    0xa5, 0x63, 0x3a, 0x3e, 0x00, 0x21, 0x2b, 0xbe, 0x8e, 0xbc, 0xb5, 0x3d,
    0x89, 0x8c, 0x61, 0x3e, 0x43, 0x72, 0xdf, 0xbd, 0xe8, 0x8a, 0x5e, 0xbd,
    0xdc, 0x7e, 0x26, 0x3d, 0x10, 0x91, 0x61, 0x3c, 0xee, 0x1c, 0xe3, 0x3d,
    0x14, 0x72, 0x13, 0xbe, 0x3a, 0xc3, 0xa5, 0x3d, 0x1d, 0x54, 0x2c, 0x3e,
    0x40, 0x8b, 0x2e, 0x3c, 0x36, 0x41, 0x8f, 0x3d, 0x73, 0x92, 0x5d, 0x3e,
    0x2a, 0x6e, 0x2e, 0xbe, 0x42, 0x5d, 0x47, 0xbe, 0x68, 0xba, 0xa2, 0xbc,
    0x60, 0x75, 0xbf, 0x3c, 0x6c, 0xa0, 0xfb, 0xbd, 0xce, 0xef, 0x3a, 0xbe,
    0x5e, 0xfc, 0xf1, 0x3d, 0x6c, 0x91, 0x98, 0xbd, 0x08, 0x3b, 0x06, 0xbd,
    0xec, 0xaf, 0x44, 0x3d, 0x81, 0xc2, 0xf9, 0xbd, 0xc2, 0x2b, 0x97, 0x3d,
    0xdd, 0xbc, 0xea, 0xbd, 0x5b, 0xef, 0x30, 0xbe, 0xa5, 0xd0, 0x50, 0xbe,
    0x65, 0x3e, 0x3b, 0x3e, 0x1c, 0xc5, 0x2c, 0xbe, 0x52, 0x6b, 0xe0, 0x3d,
    0x84, 0x40, 0x45, 0x3d, 0xcc, 0xf8, 0x39, 0xbd, 0xb6, 0xce, 0x91, 0x3d,
    0x0f, 0x96, 0x39, 0x3e, 0x00, 0x62, 0xc5, 0xba, 0x11, 0x3d, 0x39, 0xbe,
    0xb6, 0x86, 0xbe, 0xbd, 0x71, 0x9b, 0x27, 0x3e, 0xe9, 0x0b, 0x3d, 0x3e,
    0xa9, 0xa9, 0x39, 0x3e, 0x24, 0xe6, 0x14, 0xbd, 0x00, 0xaf, 0x18, 0x3a,
    0xee, 0xc8, 0x5e, 0xbe, 0x34, 0x31, 0x2d, 0x3d, 0x41, 0x3c, 0x47, 0x3e,
    0x76, 0xaa, 0x47, 0xbe, 0xd3, 0x4e, 0x48, 0x3e, 0xa4, 0x94, 0x30, 0x3d,
    0xf6, 0xcb, 0xb5, 0xbd, 0x82, 0x22, 0x2d, 0xbe, 0x94, 0xe5, 0x5d, 0xbe,
    0xf4, 0x1a, 0x0f, 0xbe, 0x30, 0xfb, 0xf6, 0xbd, 0x24, 0x1e, 0x1b, 0xbe,
    0x74, 0x43, 0x94, 0xbd, 0xc8, 0xa2, 0x4c, 0xbd, 0x1f, 0x7a, 0x2b, 0x3e,
    0x11, 0x95, 0x28, 0x3e, 0x92, 0x3e, 0xd4, 0x3d, 0x9c, 0x2d, 0x5d, 0x3d,
    0xc8, 0x21, 0x46, 0xbe, 0x3d, 0x6e, 0x3d, 0x3e, 0x17, 0x7c, 0xd1, 0xbd,
    0x21, 0xc9, 0x22, 0x3e, 0x00, 0x22, 0x7c, 0xbb, 0xfc, 0x0c, 0x0d, 0xbe,
    0xda, 0xba, 0xaf, 0xbd, 0x1f, 0xba, 0x3b, 0x3e, 0xf2, 0x5b, 0x42, 0xbe,
    0xe2, 0x54, 0xed, 0x3d, 0xe4, 0x43, 0x24, 0xbd, 0x74, 0x35, 0x77, 0x3d,
    0xa8, 0xc2, 0x02, 0xbe, 0x6a, 0x8c, 0x93, 0xbd, 0xe9, 0x70, 0x55, 0x3e,
    0x12, 0x15, 0xbb, 0x3d, 0xcc, 0x59, 0x7b, 0x3d, 0xf4, 0xcc, 0x35, 0xbe,
    0x3c, 0xb7, 0x0b, 0x3d, 0x00, 0xab, 0xe9, 0xbb, 0xdb, 0x2e, 0x4b, 0x3e,
    0x88, 0xa1, 0x32, 0xbd, 0x54, 0xf1, 0x5e, 0x3d, 0xf0, 0xa2, 0x1f, 0xbc,
    0x66, 0xc5, 0xb3, 0x3d, 0xf0, 0x45, 0x85, 0x3c, 0x88, 0x5b, 0x87, 0xbc,
    0x53, 0xc7, 0x3e, 0x3e, 0xdc, 0xeb, 0x13, 0x3d, 0xea, 0xe1, 0xff, 0xbd,
    0x33, 0x5e, 0x0c, 0x3e, 0x1e, 0x71, 0x9e, 0x3d, 0x70, 0xfd, 0x7c, 0x3c,
    0xc8, 0xce, 0xd7, 0x3c, 0x8d, 0x2f, 0x58, 0x3e, 0x68, 0xef, 0x9c, 0xbd,
    0x80, 0xc4, 0xa6, 0xbc, 0xa8, 0x70, 0xeb, 0xbc, 0x72, 0xc1, 0xe3, 0x3d,
    0x70, 0x5d, 0xc4, 0xbc, 0x46, 0x62, 0xc2, 0x3d, 0xb8, 0xe1, 0x53, 0xbe,
    0xe2, 0xb8, 0x19, 0xbe, 0xca, 0xf2, 0x48, 0xbe, 0x18, 0xa5, 0xdc, 0xbd,
    0xaa, 0x2b, 0xe9, 0x3d, 0x1e, 0xed, 0xdf, 0x3d, 0xf0, 0xb8, 0x3b, 0x3c,
    0x41, 0x8b, 0x13, 0x3e, 0x9e, 0x47, 0xa8, 0xbd, 0x1c, 0x5e, 0xfb, 0xbd,
    0xab, 0x48, 0x5b, 0xbe, 0x97, 0x57, 0x00, 0x3e, 0x36, 0xe8, 0x97, 0x3d,
    0xc0, 0xd4, 0x57, 0x3b, 0x59, 0x18, 0xd5, 0xbd, 0x5e, 0x06, 0xfe, 0x3d,
    0x66, 0x61, 0x88, 0xbd, 0x04, 0xb0, 0x7d, 0x3d, 0x00, 0x38, 0xac, 0x39,
    0x77, 0xe6, 0x06, 0xbe, 0xfe, 0x76, 0x36, 0xbe, 0x5f, 0x3d, 0x32, 0x3e,
    0xc4, 0xa6, 0x91, 0xbd, 0x75, 0x1d, 0x5b, 0x3e, 0x3f, 0x97, 0xf6, 0xbd,
    0xda, 0xb3, 0xf3, 0x3d, 0x40, 0x95, 0x7f, 0x3b, 0x30, 0x37, 0x79, 0xbc,
    0x33, 0x0a, 0x61, 0x3e, 0xe0, 0x4b, 0xe4, 0xbb, 0xd1, 0x80, 0x49, 0x3e,
    0x8b, 0x3d, 0x17, 0xbe, 0x8d, 0xce, 0x3a, 0x3e, 0xd8, 0x21, 0xb0, 0x3c,
    0x1a, 0xac, 0xbf, 0x3d, 0xc1, 0x2d, 0xc5, 0xbd, 0x04, 0x47, 0x90, 0xbd,
    0x82, 0x00, 0xe1, 0xbd, 0x00, 0xd8, 0x54, 0xbc, 0xa0, 0x82, 0x23, 0xbc,
    0xdb, 0x07, 0xe5, 0xbd, 0x70, 0x6e, 0x10, 0x3c, 0xa7, 0x5d, 0xe4, 0xbd,
    0xad, 0x30, 0x3c, 0x3e, 0x57, 0x40, 0x34, 0x3e, 0xe4, 0xae, 0x2c, 0x3d,
    0x68, 0xe3, 0x9a, 0xbd, 0x68, 0x4a, 0xbd, 0xbd, 0xb0, 0xe5, 0x06, 0x3c,
    0x4e, 0x0d, 0x93, 0x3d, 0x00, 0x2f, 0x56, 0x3a, 0x13, 0x7c, 0x17, 0xbe,
    0x1b, 0x84, 0xcb, 0xbd, 0x40, 0xe9, 0x86, 0x3c, 0x0b, 0x78, 0x4f, 0x3e,
    0x9a, 0xe7, 0xf8, 0xbd, 0x28, 0x0c, 0xb8, 0x3c, 0x5a, 0xe1, 0x2a, 0xbe,
    0x69, 0x9e, 0x61, 0x3e, 0xf5, 0xd8, 0x01, 0x3e, 0xec, 0x48, 0x12, 0x3d,
    0x00, 0x03, 0x64, 0xba, 0x60, 0x37, 0x42, 0xbc, 0xc7, 0x36, 0x02, 0x3e,
    0xc8, 0x4b, 0x32, 0xbe, 0x5b, 0x8b, 0x3a, 0xbe, 0x64, 0xfe, 0x28, 0x3d,
    0xc1, 0xec, 0x2a, 0x3e, 0x1d, 0x03, 0x4e, 0x3e, 0xe9, 0x92, 0x08, 0x3e,
    0x9e, 0x48, 0xef, 0xbd, 0x80, 0x28, 0x7b, 0xbd, 0x4d, 0x73, 0x01, 0xbe,
    0x5f, 0x11, 0x1c, 0x3e, 0xa4, 0x1a, 0x93, 0xbd, 0xab, 0x24, 0x33, 0x3e,
    0x4e, 0x87, 0xb9, 0x3d, 0x96, 0x20, 0xe7, 0x3d, 0x32, 0x50, 0x95, 0x3d,
    0x64, 0x09, 0xf9, 0xbd, 0x63, 0xa2, 0x0c, 0x3e, 0x4a, 0xff, 0xc7, 0x3d,
    0x59, 0x14, 0x1f, 0x3e, 0x52, 0xc4, 0x81, 0xbd, 0xe5, 0xa6, 0x3f, 0x3e,
    0x7d, 0xde, 0x45, 0x3e, 0x99, 0xc7, 0x15, 0x3e, 0xdb, 0x69, 0x1d, 0x3e,
    0xd9, 0xe4, 0x5a, 0x3e, 0x06, 0x0d, 0xd7, 0x3d, 0x20, 0xa2, 0x5f, 0x3c,
    0x46, 0xbc, 0x1c, 0xbe, 0x64, 0x37, 0x68, 0xbd, 0x23, 0xaf, 0x12, 0xbe,
    0x77, 0x40, 0x49, 0x3e, 0xfc, 0x2a, 0x3a, 0xbd, 0x83, 0x00, 0x62, 0x3e,
    0x20, 0x10, 0x3e, 0x3c, 0x00, 0x40, 0x55, 0x3b, 0xba, 0x37, 0x50, 0xbe,
    0x98, 0xa0, 0xad, 0x3c, 0x4e, 0xc4, 0x8a, 0x3d, 0x62, 0xb9, 0xed, 0x3d,
    0xba, 0xc4, 0xa0, 0x3d, 0x36, 0xa7, 0xa6, 0x3d, 0x62, 0x2a, 0xac, 0xbd,
    0x5c, 0xa1, 0x64, 0x3d, 0x0b, 0xf7, 0x2c, 0x3e, 0x36, 0xbc, 0x43, 0xbe,
    0x34, 0x5f, 0x9b, 0xbd, 0x7f, 0x38, 0x4e, 0xbe, 0x6f, 0xc5, 0x5f, 0x3e,
    0x5b, 0xf9, 0x4b, 0x3e, 0xd0, 0xfd, 0x2b, 0xbe, 0xa9, 0x66, 0x5e, 0x3e,
    0xce, 0x57, 0x49, 0xbe, 0x12, 0x0e, 0xc2, 0x3d, 0x46, 0x43, 0xe5, 0x3d,
    0x7e, 0xa8, 0x52, 0xbe, 0x42, 0x14, 0x3c, 0xbe, 0x38, 0x41, 0x35, 0xbe,
    0xd4, 0xc1, 0x3e, 0x3d, 0x85, 0x5d, 0x55, 0xbe, 0xa5, 0x9b, 0x1b, 0x3e,
    0xc0, 0x44, 0xa9, 0xbd, 0x00, 0xaa, 0x9b, 0xbc, 0xf4, 0x01, 0x48, 0xbe,
    0x1d, 0x20, 0x4f, 0xbe, 0x00, 0xd1, 0xe9, 0x3b, 0xe4, 0xf9, 0x6c, 0x3d,
    0x28, 0xc3, 0x4c, 0xbe, 0x86, 0x62, 0xa0, 0xbd, 0x6c, 0xbc, 0x6a, 0xbd,
    0x30, 0x4f, 0xc5, 0xbd, 0x81, 0x7c, 0x3e, 0x3e, 0x99, 0x88, 0x12, 0x3e,
    0x8f, 0x67, 0x31, 0x3e, 0x61, 0xa4, 0x3a, 0x3e, 0x67, 0x62, 0xf6, 0xbd,
    0x9f, 0xb7, 0x2d, 0x3e, 0xf8, 0x7b, 0xd2, 0x3c, 0x90, 0x4f, 0x95, 0xbc,
    0x6e, 0xb6, 0xa7, 0xbd, 0x50, 0x95, 0x39, 0xbe, 0x4c, 0x27, 0x55, 0xbe,
    0xd9, 0x85, 0x31, 0x3e, 0xe3, 0xe3, 0x29, 0x3e, 0xa7, 0x9b, 0x55, 0x3e,
    0x2c, 0x44, 0x50, 0x3d, 0x58, 0x1f, 0x82, 0x3c, 0xd7, 0x1f, 0x10, 0x3e,
    0xf6, 0xdf, 0xac, 0x3d, 0x2c, 0x8c, 0x51, 0x3d, 0x99, 0x9e, 0xf0, 0xbd,
    0x30, 0x9f, 0x79, 0xbc, 0xf2, 0xfa, 0xdc, 0x3d, 0x96, 0x0e, 0x22, 0xbe,
    0xd4, 0x65, 0x1a, 0x3d, 0xd8, 0xe9, 0x48, 0xbe, 0x4b, 0x5a, 0x5b, 0xbe,
    0xb2, 0xde, 0x0a, 0xbe, 0xb6, 0x9f, 0xeb, 0x3d, 0x0a, 0x94, 0x2e, 0xbe,
    0xc5, 0xb5, 0x49, 0x3e, 0xb4, 0x01, 0x63, 0x3d, 0x56, 0x4f, 0xd4, 0x3d,
    0xee, 0xda, 0xe0, 0x3d, 0xa7, 0x41, 0x44, 0xbe, 0xb2, 0xb1, 0x9f, 0x3d,
    0x40, 0xec, 0xb6, 0x3b, 0x70, 0xa2, 0xc4, 0x3c, 0x00, 0x52, 0x89, 0xb9,
    0x82, 0x25, 0xda, 0x3d, 0x55, 0x5d, 0xe9, 0xbd, 0x33, 0x75, 0x5b, 0xbe,
    0x2b, 0x50, 0xd8, 0xbd, 0x68, 0x91, 0x4e, 0xbe, 0x4c, 0x60, 0x71, 0xbd,
    0xfe, 0x40, 0xba, 0x3d, 0xec, 0xe3, 0x29, 0x3d, 0xbe, 0x61, 0xe5, 0x3d,
    0x24, 0xb8, 0x3c, 0x3d, 0xbb, 0x4d, 0xde, 0xbd, 0x08, 0xbb, 0xfd, 0x3c,
    0xc2, 0x4a, 0x32, 0xbe, 0x00, 0xe9, 0x50, 0xbd, 0x6a, 0xaa, 0xf7, 0x3d,
    0xd4, 0xd7, 0x4d, 0xbd, 0x22, 0xcc, 0xd6, 0x3d, 0xee, 0x64, 0x92, 0x3d,
    0x0c, 0x69, 0xea, 0xbd, 0x02, 0xce, 0xdf, 0x3d, 0x39, 0x09, 0x1c, 0x3e,
    0xc6, 0xe4, 0xdb, 0x3d, 0x18, 0xb3, 0x15, 0xbe, 0xc7, 0x46, 0x1e, 0x3e,
    0x78, 0x2b, 0xd7, 0xbd, 0x19, 0x37, 0x37, 0x3e, 0xba, 0x48, 0x45, 0xbe,
    0x3c, 0xbb, 0x09, 0xbd, 0x15, 0x2b, 0x1d, 0x3e, 0xc8, 0x5f, 0x4c, 0xbe,
    0xd2, 0xd0, 0xee, 0x3d, 0xc0, 0xac, 0x4c, 0xbe, 0xe5, 0xc5, 0x33, 0x3e,
    0xf5, 0xe4, 0x5f, 0x3e, 0x14, 0xbe, 0x78, 0x3d, 0x48, 0xa6, 0xe7, 0x3c,
    0x9d, 0xf4, 0x09, 0x3e, 0x12, 0x2e, 0xc3, 0x3d, 0x44, 0xa5, 0x36, 0xbd,
    0x62, 0x73, 0xc5, 0xbd, 0x2f, 0x38, 0x38, 0xbe, 0x5f, 0xeb, 0x0e, 0x3e,
    0x34, 0xa7, 0x7b, 0x3d, 0x95, 0xfa, 0x18, 0xbe, 0xe3, 0xa6, 0xce, 0xbd,
    0x40, 0x45, 0xe6, 0x3b, 0x0b, 0xf4, 0x0b, 0x3e, 0x9c, 0x4a, 0x5a, 0xbd,
    0x1b, 0x1e, 0x40, 0x3e, 0x6c, 0xeb, 0x1b, 0xbd, 0x50, 0xda, 0x70, 0x3c,
    0x52, 0xed, 0x4d, 0xbe, 0x30, 0xde, 0x28, 0x3c, 0x60, 0xda, 0xaa, 0x3b,
    0x40, 0x57, 0x0e, 0xbd, 0xbc, 0xd3, 0xcc, 0xbd, 0x5f, 0x72, 0xd1, 0xbd,
    0xf0, 0x41, 0x65, 0xbd, 0x00, 0x87, 0x7e, 0x3b, 0x1c, 0xd9, 0xac, 0xbd,
    0x4b, 0xce, 0x35, 0x3e, 0x7d, 0xd2, 0x15, 0x3e, 0x4c, 0xfb, 0x01, 0x3d,
    0x68, 0xce, 0xf0, 0xbc, 0xe8, 0x4f, 0xc6, 0xbc, 0xd2, 0xd3, 0x50, 0xbe,
    0x24, 0x8a, 0x31, 0xbe, 0xdc, 0xca, 0x0f, 0xbe, 0xac, 0x9c, 0x29, 0x3d,
    0x08, 0x7d, 0x96, 0xbc, 0xc7, 0xb7, 0x2c, 0x3e, 0x92, 0xdc, 0xd7, 0x3d,
    0xe8, 0x48, 0xc8, 0x3c, 0x4c, 0x75, 0x15, 0xbe, 0x17, 0x25, 0xde, 0xbd,
    0x92, 0xe8, 0x38, 0xbe, 0x68, 0x28, 0xa3, 0xbd, 0xec, 0x20, 0x6b, 0x3d,
    0x3b, 0x62, 0xd2, 0xbd, 0xe3, 0xe9, 0xe6, 0xbd, 0xdd, 0x86, 0x61, 0x3e,
    0xe8, 0x81, 0x10, 0xbd, 0x11, 0xfa, 0x40, 0x3e, 0xac, 0xca, 0x4b, 0x3d,
    0x75, 0x0f, 0x39, 0xbe, 0x54, 0xc0, 0x08, 0x3d, 0xe2, 0x36, 0xa0, 0x3d,
    0x44, 0x68, 0x4f, 0x3d, 0x45, 0x04, 0x35, 0x3e, 0x75, 0x85, 0x59, 0x3e,
    0xf0, 0x57, 0x6a, 0x3c, 0x36, 0xe6, 0xc2, 0xbd, 0x7a, 0x47, 0xaf, 0xbd,
    0x40, 0x2c, 0x05, 0xbd, 0x32, 0x29, 0x0b, 0xbe, 0xac, 0x27, 0xab, 0xbd,
    0x27, 0x33, 0x20, 0x3e, 0x25, 0x37, 0x53, 0x3e, 0xe4, 0x2d, 0xdd, 0xbd,
    0x30, 0x5d, 0xcb, 0x3c, 0xb4, 0xa3, 0x31, 0xbd, 0xd3, 0xda, 0x0b, 0x3e,
    0x2b, 0x3b, 0xdd, 0xbd, 0xc0, 0xbb, 0xf5, 0xbc, 0xc4, 0x80, 0xa5, 0xbd,
    0x4b, 0x8f, 0x17, 0x3e, 0x23, 0x51, 0xd5, 0xbd, 0x55, 0x56, 0xd2, 0xbd,
    0xdc, 0x0d, 0x2b, 0x3d, 0xaa, 0x19, 0x0e, 0xbe, 0xa8, 0xb4, 0xdb, 0xbc,
    0x37, 0xb2, 0x22, 0x3e, 0x65, 0x12, 0x43, 0xbe, 0x06, 0xfe, 0x1c, 0xbe,
    0x38, 0x63, 0xab, 0xbc, 0x7b, 0x4e, 0xf7, 0xbd, 0xfa, 0x48, 0x43, 0xbe,
    0xa3, 0xc2, 0x26, 0x3e, 0x06, 0xf2, 0xda, 0x3d, 0xda, 0xe6, 0xaa, 0x3d,
    0x60, 0x16, 0x6b, 0xbd, 0x94, 0x37, 0x35, 0x3d, 0x26, 0x8b, 0x1c, 0xbe,
    0x75, 0x74, 0x53, 0x3e, 0x70, 0x8b, 0x1c, 0xbd, 0xfe, 0x42, 0xf3, 0x3d,
    0x46, 0xf1, 0x61, 0xbe, 0x1a, 0xad, 0xf9, 0x3d, 0x32, 0x83, 0xcf, 0x3d,
    0xea, 0x5a, 0x15, 0xbe, 0x0f, 0xd6, 0xfa, 0xbd, 0x46, 0xfe, 0xff, 0xff,
    0x04, 0x00, 0x00, 0x00, 0x0c, 0x00, 0x00, 0x00, 0xff, 0xff, 0xff, 0xff,
    0x1c, 0x00, 0x00, 0x00, 0x20, 0x00, 0x00, 0x00, 0x5e, 0xfe, 0xff, 0xff,
    0x04, 0x00, 0x00, 0x00, 0x80, 0x00, 0x00, 0x00, 0x00, 0x00, 0x00, 0x00,
    0x00, 0x00, 0x00, 0x00, 0x00, 0x00, 0x00, 0x00, 0x00, 0x00, 0x00, 0x00,
    0x00, 0x00, 0x00, 0x00, 0x00, 0x00, 0x00, 0x00, 0x00, 0x00, 0x00, 0x00,
    0x00, 0x00, 0x00, 0x00, 0x00, 0x00, 0x00, 0x00, 0x00, 0x00, 0x00, 0x00,
    0x00, 0x00, 0x00, 0x00, 0x00, 0x00, 0x00, 0x00, 0x00, 0x00, 0x00, 0x00,
    0x00, 0x00, 0x00, 0x00, 0x00, 0x00, 0x00, 0x00, 0x00, 0x00, 0x00, 0x00,
    0x00, 0x00, 0x00, 0x00, 0x00, 0x00, 0x00, 0x00, 0x00, 0x00, 0x00, 0x00,
    0x00, 0x00, 0x00, 0x00, 0x00, 0x00, 0x00, 0x00, 0x00, 0x00, 0x00, 0x00,
    0x00, 0x00, 0x00, 0x00, 0x00, 0x00, 0x00, 0x00, 0x00, 0x00, 0x00, 0x00,
    0x00, 0x00, 0x00, 0x00, 0x00, 0x00, 0x00, 0x00, 0x00, 0x00, 0x00, 0x00,
    0x00, 0x00, 0x00, 0x00, 0x00, 0x00, 0x00, 0x00, 0x00, 0x00, 0x00, 0x00,
    0x00, 0x00, 0x00, 0x00, 0x58, 0xf1, 0xff, 0xff, 0xee, 0xfe, 0xff, 0xff,
    0x04, 0x00, 0x00, 0x00, 0x04, 0x00, 0x00, 0x00, 0x00, 0x00, 0x00, 0x00,
    0xfe, 0xfe, 0xff, 0xff, 0x04, 0x00, 0x00, 0x00, 0x04, 0x00, 0x00, 0x00,
    0x06, 0x00, 0x00, 0x00, 0x0e, 0xff, 0xff, 0xff, 0x04, 0x00, 0x00, 0x00,
    0x04, 0x00, 0x00, 0x00, 0x07, 0x00, 0x00, 0x00, 0x1e, 0xff, 0xff, 0xff,
    0x04, 0x00, 0x00, 0x00, 0x04, 0x00, 0x00, 0x00, 0x01, 0x00, 0x00, 0x00,
    0x2e, 0xff, 0xff, 0xff, 0x04, 0x00, 0x00, 0x00, 0x04, 0x00, 0x00, 0x00,
    0xfd, 0xff, 0xff, 0xff, 0xac, 0xf1, 0xff, 0xff, 0xb0, 0xf1, 0xff, 0xff,
    0x0f, 0x00, 0x00, 0x00, 0x4d, 0x4c, 0x49, 0x52, 0x20, 0x43, 0x6f, 0x6e,
    0x76, 0x65, 0x72, 0x74, 0x65, 0x64, 0x2e, 0x00, 0x01, 0x00, 0x00, 0x00,
    0x14, 0x00, 0x00, 0x00, 0x00, 0x00, 0x0e, 0x00, 0x18, 0x00, 0x14, 0x00,
    0x10, 0x00, 0x0c, 0x00, 0x08, 0x00, 0x04, 0x00, 0x0e, 0x00, 0x00, 0x00,
    0x14, 0x00, 0x00, 0x00, 0x1c, 0x00, 0x00, 0x00, 0xb0, 0x02, 0x00, 0x00,
    0xb4, 0x02, 0x00, 0x00, 0xb8, 0x02, 0x00, 0x00, 0x04, 0x00, 0x00, 0x00,
    0x6d, 0x61, 0x69, 0x6e, 0x00, 0x00, 0x00, 0x00, 0x0a, 0x00, 0x00, 0x00,
    0x68, 0x02, 0x00, 0x00, 0x04, 0x02, 0x00, 0x00, 0xcc, 0x01, 0x00, 0x00,
    0x8c, 0x01, 0x00, 0x00, 0x44, 0x01, 0x00, 0x00, 0xfc, 0x00, 0x00, 0x00,
    0xc0, 0x00, 0x00, 0x00, 0x70, 0x00, 0x00, 0x00, 0x2c, 0x00, 0x00, 0x00,
    0x04, 0x00, 0x00, 0x00, 0x5e, 0xfe, 0xff, 0xff, 0x0c, 0x00, 0x00, 0x00,
    0x10, 0x00, 0x00, 0x00, 0x02, 0x00, 0x00, 0x00, 0x01, 0x00, 0x00, 0x00,
    0x15, 0x00, 0x00, 0x00, 0x02, 0x00, 0x00, 0x00, 0x11, 0x00, 0x00, 0x00,
    0x14, 0x00, 0x00, 0x00, 0x52, 0xfe, 0xff, 0xff, 0x1c, 0x00, 0x00, 0x00,
    0x00, 0x00, 0x00, 0x3b, 0x1c, 0x00, 0x00, 0x00, 0x20, 0x00, 0x00, 0x00,
    0x07, 0x00, 0x00, 0x00, 0x00, 0x00, 0x06, 0x00, 0x08, 0x00, 0x04, 0x00,
    0x06, 0x00, 0x00, 0x00, 0x03, 0x00, 0x00, 0x00, 0x01, 0x00, 0x00, 0x00,
    0x14, 0x00, 0x00, 0x00, 0x03, 0x00, 0x00, 0x00, 0x13, 0x00, 0x00, 0x00,
    0x03, 0x00, 0x00, 0x00, 0x04, 0x00, 0x00, 0x00, 0x92, 0xfe, 0xff, 0xff,
    0x24, 0x00, 0x00, 0x00, 0x00, 0x00, 0x00, 0x20, 0x24, 0x00, 0x00, 0x00,
    0x28, 0x00, 0x00, 0x00, 0x06, 0x00, 0x00, 0x00, 0x00, 0x00, 0x0e, 0x00,
    0x08, 0x00, 0x00, 0x00, 0x00, 0x00, 0x00, 0x00, 0x00, 0x00, 0x04, 0x00,
    0x0e, 0x00, 0x00, 0x00, 0x01, 0x00, 0x00, 0x00, 0x01, 0x00, 0x00, 0x00,
    0x13, 0x00, 0x00, 0x00, 0x04, 0x00, 0x00, 0x00, 0x12, 0x00, 0x00, 0x00,
    0x05, 0x00, 0x00, 0x00, 0x06, 0x00, 0x00, 0x00, 0x06, 0x00, 0x00, 0x00,
    0xde, 0xfe, 0xff, 0xff, 0x1c, 0x00, 0x00, 0x00, 0x00, 0x00, 0x00, 0x37,
    0x1c, 0x00, 0x00, 0x00, 0x20, 0x00, 0x00, 0x00, 0x05, 0x00, 0x00, 0x00,
    0x00, 0x00, 0x06, 0x00, 0x08, 0x00, 0x07, 0x00, 0x06, 0x00, 0x00, 0x00,
    0x00, 0x00, 0x00, 0x02, 0x01, 0x00, 0x00, 0x00, 0x12, 0x00, 0x00, 0x00,
    0x01, 0x00, 0x00, 0x00, 0x11, 0x00, 0x00, 0x00, 0x16, 0xff, 0xff, 0xff,
    0x20, 0x00, 0x00, 0x00, 0x00, 0x00, 0x00, 0x08, 0x20, 0x00, 0x00, 0x00,
    0x24, 0x00, 0x00, 0x00, 0x04, 0x00, 0x00, 0x00, 0x0c, 0x00, 0x08, 0x00,
    0x00, 0x00, 0x00, 0x00, 0x00, 0x00, 0x07, 0x00, 0x0c, 0x00, 0x00, 0x00,
    0x00, 0x00, 0x00, 0x01, 0x01, 0x00, 0x00, 0x00, 0x11, 0x00, 0x00, 0x00,
    0x03, 0x00, 0x00, 0x00, 0x10, 0x00, 0x00, 0x00, 0x0a, 0x00, 0x00, 0x00,
    0xff, 0xff, 0xff, 0xff, 0x5a, 0xff, 0xff, 0xff, 0x20, 0x00, 0x00, 0x00,
    0x00, 0x00, 0x00, 0x08, 0x20, 0x00, 0x00, 0x00, 0x24, 0x00, 0x00, 0x00,
    0x04, 0x00, 0x00, 0x00, 0x0c, 0x00, 0x08, 0x00, 0x07, 0x00, 0x00, 0x00,
    0x00, 0x00, 0x06, 0x00, 0x0c, 0x00, 0x00, 0x00, 0x00, 0x00, 0x01, 0x01,
    0x01, 0x00, 0x00, 0x00, 0x10, 0x00, 0x00, 0x00, 0x03, 0x00, 0x00, 0x00,
    0x0f, 0x00, 0x00, 0x00, 0x0b, 0x00, 0x00, 0x00, 0xff, 0xff, 0xff, 0xff,
    0x9e, 0xff, 0xff, 0xff, 0x14, 0x00, 0x00, 0x00, 0x00, 0x00, 0x00, 0x1b,
    0x10, 0x00, 0x00, 0x00, 0x14, 0x00, 0x00, 0x00, 0x03, 0x00, 0x00, 0x00,
    0xb8, 0xf3, 0xff, 0xff, 0x01, 0x00, 0x00, 0x00, 0x0f, 0x00, 0x00, 0x00,
    0x02, 0x00, 0x00, 0x00, 0x0e, 0x00, 0x00, 0x00, 0x02, 0x00, 0x00, 0x00,
    0x00, 0x00, 0x0a, 0x00, 0x10, 0x00, 0x0c, 0x00, 0x08, 0x00, 0x04, 0x00,
    0x0a, 0x00, 0x00, 0x00, 0x0c, 0x00, 0x00, 0x00, 0x10, 0x00, 0x00, 0x00,
    0x02, 0x00, 0x00, 0x00, 0x01, 0x00, 0x00, 0x00, 0x0e, 0x00, 0x00, 0x00,
    0x02, 0x00, 0x00, 0x00, 0x0d, 0x00, 0x00, 0x00, 0x08, 0x00, 0x00, 0x00,
    0x00, 0x00, 0x0e, 0x00, 0x18, 0x00, 0x14, 0x00, 0x10, 0x00, 0x0c, 0x00,
    0x0b, 0x00, 0x04, 0x00, 0x0e, 0x00, 0x00, 0x00, 0x20, 0x00, 0x00, 0x00,
    0x00, 0x00, 0x00, 0x01, 0x2c, 0x00, 0x00, 0x00, 0x30, 0x00, 0x00, 0x00,
    0x01, 0x00, 0x00, 0x00, 0x0c, 0x00, 0x14, 0x00, 0x13, 0x00, 0x0c, 0x00,
    0x08, 0x00, 0x07, 0x00, 0x0c, 0x00, 0x00, 0x00, 0x00, 0x00, 0x00, 0x01,
    0x01, 0x00, 0x00, 0x00, 0x01, 0x00, 0x00, 0x00, 0x00, 0x00, 0x00, 0x01,
    0x01, 0x00, 0x00, 0x00, 0x0d, 0x00, 0x00, 0x00, 0x03, 0x00, 0x00, 0x00,
    0x0c, 0x00, 0x00, 0x00, 0x09, 0x00, 0x00, 0x00, 0x07, 0x00, 0x00, 0x00,
    0x00, 0x00, 0x0e, 0x00, 0x14, 0x00, 0x00, 0x00, 0x10, 0x00, 0x0c, 0x00,
    0x0b, 0x00, 0x04, 0x00, 0x0e, 0x00, 0x00, 0x00, 0x10, 0x00, 0x00, 0x00,
    0x00, 0x00, 0x00, 0x34, 0x0c, 0x00, 0x00, 0x00, 0x10, 0x00, 0x00, 0x00,
    0x84, 0xf4, 0xff, 0xff, 0x01, 0x00, 0x00, 0x00, 0x0c, 0x00, 0x00, 0x00,
    0x02, 0x00, 0x00, 0x00, 0x00, 0x00, 0x00, 0x00, 0x01, 0x00, 0x00, 0x00,
    0x01, 0x00, 0x00, 0x00, 0x15, 0x00, 0x00, 0x00, 0x01, 0x00, 0x00, 0x00,
    0x00, 0x00, 0x00, 0x00, 0x16, 0x00, 0x00, 0x00, 0x24, 0x0b, 0x00, 0x00,
    0xd0, 0x0a, 0x00, 0x00, 0x7c, 0x0a, 0x00, 0x00, 0x40, 0x0a, 0x00, 0x00,
    0x04, 0x0a, 0x00, 0x00, 0xc4, 0x09, 0x00, 0x00, 0x84, 0x09, 0x00, 0x00,
    0x48, 0x09, 0x00, 0x00, 0xf0, 0x08, 0x00, 0x00, 0xa8, 0x08, 0x00, 0x00,
    0x4c, 0x06, 0x00, 0x00, 0x74, 0x04, 0x00, 0x00, 0xf4, 0x03, 0x00, 0x00,
    0x3c, 0x03, 0x00, 0x00, 0xac, 0x02, 0x00, 0x00, 0x3c, 0x02, 0x00, 0x00,
    0xc4, 0x01, 0x00, 0x00, 0x64, 0x01, 0x00, 0x00, 0x14, 0x01, 0x00, 0x00,
    0xc0, 0x00, 0x00, 0x00, 0x68, 0x00, 0x00, 0x00, 0x04, 0x00, 0x00, 0x00,
    0x4a, 0xf5, 0xff, 0xff, 0x00, 0x00, 0x00, 0x01, 0x14, 0x00, 0x00, 0x00,
    0x20, 0x00, 0x00, 0x00, 0x20, 0x00, 0x00, 0x00, 0x16, 0x00, 0x00, 0x00,
    0x38, 0x00, 0x00, 0x00, 0x03, 0x00, 0x00, 0x00, 0xff, 0xff, 0xff, 0xff,
    0x07, 0x00, 0x00, 0x00, 0x06, 0x00, 0x00, 0x00, 0x34, 0xf5, 0xff, 0xff,
    0x1b, 0x00, 0x00, 0x00, 0x53, 0x74, 0x61, 0x74, 0x65, 0x66, 0x75, 0x6c,
    0x50, 0x61, 0x72, 0x74, 0x69, 0x74, 0x69, 0x6f, 0x6e, 0x65, 0x64, 0x43,
    0x61, 0x6c, 0x6c, 0x5f, 0x31, 0x3a, 0x30, 0x00, 0x03, 0x00, 0x00, 0x00,
    0x01, 0x00, 0x00, 0x00, 0x07, 0x00, 0x00, 0x00, 0x06, 0x00, 0x00, 0x00,
    0xfa, 0xf5, 0xff, 0xff, 0x00, 0x00, 0x00, 0x01, 0x14, 0x00, 0x00, 0x00,
    0x14, 0x00, 0x00, 0x00, 0x15, 0x00, 0x00, 0x00, 0x00, 0x00, 0x00, 0x02,
    0x34, 0x00, 0x00, 0x00, 0x84, 0xf5, 0xff, 0xff, 0x24, 0x00, 0x00, 0x00,
    0x73, 0x65, 0x71, 0x75, 0x65, 0x6e, 0x74, 0x69, 0x61, 0x6c, 0x5f, 0x31,
    0x2f, 0x72, 0x65, 0x73, 0x68, 0x61, 0x70, 0x65, 0x5f, 0x31, 0x2f, 0x52,
    0x65, 0x73, 0x68, 0x61, 0x70, 0x65, 0x2f, 0x73, 0x68, 0x61, 0x70, 0x65,
    0x00, 0x00, 0x00, 0x00, 0x01, 0x00, 0x00, 0x00, 0x03, 0x00, 0x00, 0x00,
    0x4e, 0xf6, 0xff, 0xff, 0x00, 0x00, 0x00, 0x01, 0x14, 0x00, 0x00, 0x00,
    0x14, 0x00, 0x00, 0x00, 0x14, 0x00, 0x00, 0x00, 0x00, 0x00, 0x00, 0x02,
    0x34, 0x00, 0x00, 0x00, 0xd8, 0xf5, 0xff, 0xff, 0x24, 0x00, 0x00, 0x00,
    0x73, 0x65, 0x71, 0x75, 0x65, 0x6e, 0x74, 0x69, 0x61, 0x6c, 0x5f, 0x31,
    0x2f, 0x72, 0x65, 0x73, 0x68, 0x61, 0x70, 0x65, 0x5f, 0x31, 0x2f, 0x73,
    0x74, 0x72, 0x69, 0x64, 0x65, 0x64, 0x5f, 0x73, 0x6c, 0x69, 0x63, 0x65,
    0x00, 0x00, 0x00, 0x00, 0x00, 0x00, 0x00, 0x00, 0x9e, 0xf6, 0xff, 0xff,
    0x00, 0x00, 0x00, 0x01, 0x14, 0x00, 0x00, 0x00, 0x14, 0x00, 0x00, 0x00,
    0x13, 0x00, 0x00, 0x00, 0x00, 0x00, 0x00, 0x02, 0x2c, 0x00, 0x00, 0x00,
    0x28, 0xf6, 0xff, 0xff, 0x1c, 0x00, 0x00, 0x00, 0x73, 0x65, 0x71, 0x75,
    0x65, 0x6e, 0x74, 0x69, 0x61, 0x6c, 0x5f, 0x31, 0x2f, 0x72, 0x65, 0x73,
    0x68, 0x61, 0x70, 0x65, 0x5f, 0x31, 0x2f, 0x53, 0x68, 0x61, 0x70, 0x65,
    0x00, 0x00, 0x00, 0x00, 0x01, 0x00, 0x00, 0x00, 0x02, 0x00, 0x00, 0x00,
    0x9a, 0xf6, 0xff, 0xff, 0x00, 0x00, 0x00, 0x01, 0x14, 0x00, 0x00, 0x00,
    0x1c, 0x00, 0x00, 0x00, 0x1c, 0x00, 0x00, 0x00, 0x12, 0x00, 0x00, 0x00,
    0x38, 0x00, 0x00, 0x00, 0x02, 0x00, 0x00, 0x00, 0xff, 0xff, 0xff, 0xff,
    0x2a, 0x00, 0x00, 0x00, 0x80, 0xf6, 0xff, 0xff, 0x1d, 0x00, 0x00, 0x00,
    0x73, 0x65, 0x71, 0x75, 0x65, 0x6e, 0x74, 0x69, 0x61, 0x6c, 0x5f, 0x31,
    0x2f, 0x64, 0x65, 0x6e, 0x73, 0x65, 0x5f, 0x31, 0x5f, 0x32, 0x2f, 0x4d,
    0x61, 0x74, 0x4d, 0x75, 0x6c, 0x00, 0x00, 0x00, 0x02, 0x00, 0x00, 0x00,
    0x01, 0x00, 0x00, 0x00, 0x2a, 0x00, 0x00, 0x00, 0xf6, 0xf6, 0xff, 0xff,
    0x00, 0x00, 0x00, 0x01, 0x14, 0x00, 0x00, 0x00, 0x1c, 0x00, 0x00, 0x00,
    0x1c, 0x00, 0x00, 0x00, 0x11, 0x00, 0x00, 0x00, 0x50, 0x00, 0x00, 0x00,
    0x02, 0x00, 0x00, 0x00, 0xff, 0xff, 0xff, 0xff, 0x20, 0x00, 0x00, 0x00,
    0xdc, 0xf6, 0xff, 0xff, 0x35, 0x00, 0x00, 0x00, 0x73, 0x65, 0x71, 0x75,
    0x65, 0x6e, 0x74, 0x69, 0x61, 0x6c, 0x5f, 0x31, 0x2f, 0x64, 0x65, 0x6e,
    0x73, 0x65, 0x5f, 0x31, 0x2f, 0x4d, 0x61, 0x74, 0x4d, 0x75, 0x6c, 0x3b,
    0x73, 0x65, 0x71, 0x75, 0x65, 0x6e, 0x74, 0x69, 0x61, 0x6c, 0x5f, 0x31,
    0x2f, 0x64, 0x65, 0x6e, 0x73, 0x65, 0x5f, 0x31, 0x2f, 0x52, 0x65, 0x6c,
    0x75, 0x00, 0x00, 0x00, 0x02, 0x00, 0x00, 0x00, 0x01, 0x00, 0x00, 0x00,
    0x20, 0x00, 0x00, 0x00, 0x6a, 0xf7, 0xff, 0xff, 0x00, 0x00, 0x00, 0x01,
    0x14, 0x00, 0x00, 0x00, 0x1c, 0x00, 0x00, 0x00, 0x1c, 0x00, 0x00, 0x00,
    0x10, 0x00, 0x00, 0x00, 0x48, 0x00, 0x00, 0x00, 0x02, 0x00, 0x00, 0x00,
    0xff, 0xff, 0xff, 0xff, 0x20, 0x00, 0x00, 0x00, 0x50, 0xf7, 0xff, 0xff,
    0x2c, 0x00, 0x00, 0x00, 0x73, 0x65, 0x71, 0x75, 0x65, 0x6e, 0x74, 0x69,
    0x61, 0x6c, 0x5f, 0x31, 0x2f, 0x67, 0x6c, 0x6f, 0x62, 0x61, 0x6c, 0x5f,
    0x61, 0x76, 0x65, 0x72, 0x61, 0x67, 0x65, 0x5f, 0x70, 0x6f, 0x6f, 0x6c,
    0x69, 0x6e, 0x67, 0x31, 0x64, 0x5f, 0x31, 0x2f, 0x4d, 0x65, 0x61, 0x6e,
    0x00, 0x00, 0x00, 0x00, 0x02, 0x00, 0x00, 0x00, 0x01, 0x00, 0x00, 0x00,
    0x20, 0x00, 0x00, 0x00, 0xd6, 0xf7, 0xff, 0xff, 0x00, 0x00, 0x00, 0x01,
    0x14, 0x00, 0x00, 0x00, 0x20, 0x00, 0x00, 0x00, 0x20, 0x00, 0x00, 0x00,
    0x0f, 0x00, 0x00, 0x00, 0x64, 0x00, 0x00, 0x00, 0x03, 0x00, 0x00, 0x00,
    0xff, 0xff, 0xff, 0xff, 0x1c, 0x00, 0x00, 0x00, 0x20, 0x00, 0x00, 0x00,
    0xc0, 0xf7, 0xff, 0xff, 0x44, 0x00, 0x00, 0x00, 0x73, 0x65, 0x71, 0x75,
    0x65, 0x6e, 0x74, 0x69, 0x61, 0x6c, 0x5f, 0x31, 0x2f, 0x63, 0x6f, 0x6e,
    0x76, 0x31, 0x64, 0x5f, 0x31, 0x2f, 0x52, 0x65, 0x6c, 0x75, 0x3b, 0x73,
    0x65, 0x71, 0x75, 0x65, 0x6e, 0x74, 0x69, 0x61, 0x6c, 0x5f, 0x31, 0x2f,
    0x63, 0x6f, 0x6e, 0x76, 0x31, 0x64, 0x5f, 0x31, 0x2f, 0x63, 0x6f, 0x6e,
    0x76, 0x6f, 0x6c, 0x75, 0x74, 0x69, 0x6f, 0x6e, 0x2f, 0x53, 0x71, 0x75,
    0x65, 0x65, 0x7a, 0x65, 0x00, 0x00, 0x00, 0x00, 0x03, 0x00, 0x00, 0x00,
    0x01, 0x00, 0x00, 0x00, 0x1c, 0x00, 0x00, 0x00, 0x20, 0x00, 0x00, 0x00,
    0x62, 0xf8, 0xff, 0xff, 0x00, 0x00, 0x00, 0x01, 0x14, 0x00, 0x00, 0x00,
    0x24, 0x00, 0x00, 0x00, 0x24, 0x00, 0x00, 0x00, 0x0e, 0x00, 0x00, 0x00,
    0x88, 0x00, 0x00, 0x00, 0x04, 0x00, 0x00, 0x00, 0xff, 0xff, 0xff, 0xff,
    0x01, 0x00, 0x00, 0x00, 0x1c, 0x00, 0x00, 0x00, 0x20, 0x00, 0x00, 0x00,
    0x50, 0xf8, 0xff, 0xff, 0x66, 0x00, 0x00, 0x00, 0x73, 0x65, 0x71, 0x75,
    0x65, 0x6e, 0x74, 0x69, 0x61, 0x6c, 0x5f, 0x31, 0x2f, 0x63, 0x6f, 0x6e,
    0x76, 0x31, 0x64, 0x5f, 0x31, 0x2f, 0x52, 0x65, 0x6c, 0x75, 0x3b, 0x73,
    0x65, 0x71, 0x75, 0x65, 0x6e, 0x74, 0x69, 0x61, 0x6c, 0x5f, 0x31, 0x2f,
    0x63, 0x6f, 0x6e, 0x76, 0x31, 0x64, 0x5f, 0x31, 0x2f, 0x63, 0x6f, 0x6e,
    0x76, 0x6f, 0x6c, 0x75, 0x74, 0x69, 0x6f, 0x6e, 0x2f, 0x53, 0x71, 0x75,
    0x65, 0x65, 0x7a, 0x65, 0x3b, 0x73, 0x65, 0x71, 0x75, 0x65, 0x6e, 0x74,
    0x69, 0x61, 0x6c, 0x5f, 0x31, 0x2f, 0x63, 0x6f, 0x6e, 0x76, 0x31, 0x64,
    0x5f, 0x31, 0x2f, 0x63, 0x6f, 0x6e, 0x76, 0x6f, 0x6c, 0x75, 0x74, 0x69,
    0x6f, 0x6e, 0x00, 0x00, 0x04, 0x00, 0x00, 0x00, 0x01, 0x00, 0x00, 0x00,
    0x01, 0x00, 0x00, 0x00, 0x1c, 0x00, 0x00, 0x00, 0x20, 0x00, 0x00, 0x00,
    0x16, 0xf9, 0xff, 0xff, 0x00, 0x00, 0x00, 0x01, 0x14, 0x00, 0x00, 0x00,
    0x24, 0x00, 0x00, 0x00, 0x24, 0x00, 0x00, 0x00, 0x0d, 0x00, 0x00, 0x00,
    0x50, 0x00, 0x00, 0x00, 0x04, 0x00, 0x00, 0x00, 0xff, 0xff, 0xff, 0xff,
    0x01, 0x00, 0x00, 0x00, 0x1e, 0x00, 0x00, 0x00, 0x09, 0x00, 0x00, 0x00,
    0x04, 0xf9, 0xff, 0xff, 0x2c, 0x00, 0x00, 0x00, 0x73, 0x65, 0x71, 0x75,
    0x65, 0x6e, 0x74, 0x69, 0x61, 0x6c, 0x5f, 0x31, 0x2f, 0x63, 0x6f, 0x6e,
    0x76, 0x31, 0x64, 0x5f, 0x31, 0x2f, 0x63, 0x6f, 0x6e, 0x76, 0x6f, 0x6c,
    0x75, 0x74, 0x69, 0x6f, 0x6e, 0x2f, 0x45, 0x78, 0x70, 0x61, 0x6e, 0x64,
    0x44, 0x69, 0x6d, 0x73, 0x00, 0x00, 0x00, 0x00, 0x04, 0x00, 0x00, 0x00,
    0x01, 0x00, 0x00, 0x00, 0x01, 0x00, 0x00, 0x00, 0x1e, 0x00, 0x00, 0x00,
    0x09, 0x00, 0x00, 0x00, 0xe2, 0xf9, 0xff, 0xff, 0x00, 0x00, 0x00, 0x01,
    0x14, 0x00, 0x00, 0x00, 0xa4, 0x01, 0x00, 0x00, 0x0c, 0x00, 0x00, 0x00,
    0x00, 0x00, 0x00, 0x09, 0xb0, 0x01, 0x00, 0x00, 0x2c, 0xfe, 0xff, 0xff,
    0x08, 0x00, 0x00, 0x00, 0x08, 0x01, 0x00, 0x00, 0x20, 0x00, 0x00, 0x00,
    0x00, 0x00, 0x00, 0x00, 0x00, 0x00, 0x00, 0x00, 0x00, 0x00, 0x00, 0x00,
    0x00, 0x00, 0x00, 0x00, 0x00, 0x00, 0x00, 0x00, 0x00, 0x00, 0x00, 0x00,
    0x00, 0x00, 0x00, 0x00, 0x00, 0x00, 0x00, 0x00, 0x00, 0x00, 0x00, 0x00,
    0x00, 0x00, 0x00, 0x00, 0x00, 0x00, 0x00, 0x00, 0x00, 0x00, 0x00, 0x00,
    0x00, 0x00, 0x00, 0x00, 0x00, 0x00, 0x00, 0x00, 0x00, 0x00, 0x00, 0x00,
    0x00, 0x00, 0x00, 0x00, 0x00, 0x00, 0x00, 0x00, 0x00, 0x00, 0x00, 0x00,
    0x00, 0x00, 0x00, 0x00, 0x00, 0x00, 0x00, 0x00, 0x00, 0x00, 0x00, 0x00,
    0x00, 0x00, 0x00, 0x00, 0x00, 0x00, 0x00, 0x00, 0x00, 0x00, 0x00, 0x00,
    0x00, 0x00, 0x00, 0x00, 0x00, 0x00, 0x00, 0x00, 0x00, 0x00, 0x00, 0x00,
    0x00, 0x00, 0x00, 0x00, 0x00, 0x00, 0x00, 0x00, 0x00, 0x00, 0x00, 0x00,
    0x00, 0x00, 0x00, 0x00, 0x00, 0x00, 0x00, 0x00, 0x00, 0x00, 0x00, 0x00,
    0x00, 0x00, 0x00, 0x00, 0x00, 0x00, 0x00, 0x00, 0x00, 0x00, 0x00, 0x00,
    0x00, 0x00, 0x00, 0x00, 0x00, 0x00, 0x00, 0x00, 0x00, 0x00, 0x00, 0x00,
    0x00, 0x00, 0x00, 0x00, 0x00, 0x00, 0x00, 0x00, 0x00, 0x00, 0x00, 0x00,
    0x00, 0x00, 0x00, 0x00, 0x00, 0x00, 0x00, 0x00, 0x00, 0x00, 0x00, 0x00,
    0x00, 0x00, 0x00, 0x00, 0x00, 0x00, 0x00, 0x00, 0x00, 0x00, 0x00, 0x00,
    0x00, 0x00, 0x00, 0x00, 0x00, 0x00, 0x00, 0x00, 0x00, 0x00, 0x00, 0x00,
    0x00, 0x00, 0x00, 0x00, 0x00, 0x00, 0x00, 0x00, 0x00, 0x00, 0x00, 0x00,
    0x00, 0x00, 0x00, 0x00, 0x00, 0x00, 0x00, 0x00, 0x00, 0x00, 0x00, 0x00,
    0x00, 0x00, 0x00, 0x00, 0x00, 0x00, 0x00, 0x00, 0x00, 0x00, 0x00, 0x00,
    0x00, 0x00, 0x00, 0x00, 0x00, 0x00, 0x00, 0x00, 0x00, 0x00, 0x00, 0x00,
    0x00, 0x00, 0x00, 0x00, 0x20, 0x00, 0x00, 0x00, 0x98, 0x86, 0x1a, 0x3b,
    0x50, 0x7d, 0x1c, 0x3b, 0x85, 0x83, 0x1c, 0x3b, 0xf9, 0x32, 0x19, 0x3b,
    0xe1, 0xad, 0x1d, 0x3b, 0xd3, 0x5f, 0x16, 0x3b, 0x79, 0xaa, 0x1c, 0x3b,
    0x47, 0x7d, 0x14, 0x3b, 0x81, 0x31, 0x10, 0x3b, 0x7e, 0x00, 0x1c, 0x3b,
    0x0e, 0xd1, 0x19, 0x3b, 0xfb, 0x56, 0x1d, 0x3b, 0x6a, 0x31, 0x1d, 0x3b,
    0xdf, 0xf4, 0x1a, 0x3b, 0x74, 0x69, 0x17, 0x3b, 0x8d, 0x2c, 0x18, 0x3b,
    0x74, 0x73, 0x1d, 0x3b, 0xdb, 0x03, 0x1b, 0x3b, 0x39, 0x78, 0x11, 0x3b,
    0x92, 0xc6, 0x17, 0x3b, 0xde, 0x44, 0x1d, 0x3b, 0xde, 0x10, 0x19, 0x3b,
    0x46, 0x07, 0x0c, 0x3b, 0x4d, 0xa0, 0x1d, 0x3b, 0xdb, 0xd2, 0x17, 0x3b,
    0x95, 0x15, 0x1a, 0x3b, 0x25, 0xda, 0x15, 0x3b, 0x4a, 0x83, 0x18, 0x3b,
    0xa0, 0x8a, 0x19, 0x3b, 0x80, 0xf8, 0x1d, 0x3b, 0x35, 0xd0, 0x1d, 0x3b,
    0x9f, 0xa9, 0x1a, 0x3b, 0x12, 0x00, 0x00, 0x00, 0x74, 0x66, 0x6c, 0x2e,
    0x70, 0x73, 0x65, 0x75, 0x64, 0x6f, 0x5f, 0x71, 0x63, 0x6f, 0x6e, 0x73,
    0x74, 0x31, 0x00, 0x00, 0x02, 0x00, 0x00, 0x00, 0x20, 0x00, 0x00, 0x00,
    0x20, 0x00, 0x00, 0x00, 0xb6, 0xfb, 0xff, 0xff, 0x00, 0x00, 0x00, 0x01,
    0x20, 0x00, 0x00, 0x00, 0x28, 0x02, 0x00, 0x00, 0x0b, 0x00, 0x00, 0x00,
    0x00, 0x00, 0x00, 0x09, 0x34, 0x02, 0x00, 0x00, 0x0c, 0x00, 0x0c, 0x00,
    0x00, 0x00, 0x00, 0x00, 0x08, 0x00, 0x04, 0x00, 0x0c, 0x00, 0x00, 0x00,
    0x08, 0x00, 0x00, 0x00, 0x58, 0x01, 0x00, 0x00, 0x2a, 0x00, 0x00, 0x00,
    0x00, 0x00, 0x00, 0x00, 0x00, 0x00, 0x00, 0x00, 0x00, 0x00, 0x00, 0x00,
    0x00, 0x00, 0x00, 0x00, 0x00, 0x00, 0x00, 0x00, 0x00, 0x00, 0x00, 0x00,
    0x00, 0x00, 0x00, 0x00, 0x00, 0x00, 0x00, 0x00, 0x00, 0x00, 0x00, 0x00,
    0x00, 0x00, 0x00, 0x00, 0x00, 0x00, 0x00, 0x00, 0x00, 0x00, 0x00, 0x00,
    0x00, 0x00, 0x00, 0x00, 0x00, 0x00, 0x00, 0x00, 0x00, 0x00, 0x00, 0x00,
    0x00, 0x00, 0x00, 0x00, 0x00, 0x00, 0x00, 0x00, 0x00, 0x00, 0x00, 0x00,
    0x00, 0x00, 0x00, 0x00, 0x00, 0x00, 0x00, 0x00, 0x00, 0x00, 0x00, 0x00,
    0x00, 0x00, 0x00, 0x00, 0x00, 0x00, 0x00, 0x00, 0x00, 0x00, 0x00, 0x00,
    0x00, 0x00, 0x00, 0x00, 0x00, 0x00, 0x00, 0x00, 0x00, 0x00, 0x00, 0x00,
    0x00, 0x00, 0x00, 0x00, 0x00, 0x00, 0x00, 0x00, 0x00, 0x00, 0x00, 0x00,
    0x00, 0x00, 0x00, 0x00, 0x00, 0x00, 0x00, 0x00, 0x00, 0x00, 0x00, 0x00,
    0x00, 0x00, 0x00, 0x00, 0x00, 0x00, 0x00, 0x00, 0x00, 0x00, 0x00, 0x00,
    0x00, 0x00, 0x00, 0x00, 0x00, 0x00, 0x00, 0x00, 0x00, 0x00, 0x00, 0x00,
    0x00, 0x00, 0x00, 0x00, 0x00, 0x00, 0x00, 0x00, 0x00, 0x00, 0x00, 0x00,
    0x00, 0x00, 0x00, 0x00, 0x00, 0x00, 0x00, 0x00, 0x00, 0x00, 0x00, 0x00,
    0x00, 0x00, 0x00, 0x00, 0x00, 0x00, 0x00, 0x00, 0x00, 0x00, 0x00, 0x00,
    0x00, 0x00, 0x00, 0x00, 0x00, 0x00, 0x00, 0x00, 0x00, 0x00, 0x00, 0x00,
    0x00, 0x00, 0x00, 0x00, 0x00, 0x00, 0x00, 0x00, 0x00, 0x00, 0x00, 0x00,
    0x00, 0x00, 0x00, 0x00, 0x00, 0x00, 0x00, 0x00, 0x00, 0x00, 0x00, 0x00,
    0x00, 0x00, 0x00, 0x00, 0x00, 0x00, 0x00, 0x00, 0x00, 0x00, 0x00, 0x00,
    0x00, 0x00, 0x00, 0x00, 0x00, 0x00, 0x00, 0x00, 0x00, 0x00, 0x00, 0x00,
    0x00, 0x00, 0x00, 0x00, 0x00, 0x00, 0x00, 0x00, 0x00, 0x00, 0x00, 0x00,
    0x00, 0x00, 0x00, 0x00, 0x00, 0x00, 0x00, 0x00, 0x00, 0x00, 0x00, 0x00,
    0x00, 0x00, 0x00, 0x00, 0x00, 0x00, 0x00, 0x00, 0x00, 0x00, 0x00, 0x00,
    0x00, 0x00, 0x00, 0x00, 0x00, 0x00, 0x00, 0x00, 0x00, 0x00, 0x00, 0x00,
    0x00, 0x00, 0x00, 0x00, 0x00, 0x00, 0x00, 0x00, 0x00, 0x00, 0x00, 0x00,
    0x00, 0x00, 0x00, 0x00, 0x00, 0x00, 0x00, 0x00, 0x00, 0x00, 0x00, 0x00,
    0x00, 0x00, 0x00, 0x00, 0x00, 0x00, 0x00, 0x00, 0x00, 0x00, 0x00, 0x00,
    0x2a, 0x00, 0x00, 0x00, 0xb6, 0xa1, 0x11, 0x3b, 0xe6, 0x99, 0x10, 0x3b,
    0x98, 0x6a, 0x12, 0x3b, 0x35, 0xd0, 0x0d, 0x3b, 0x29, 0xde, 0x0b, 0x3b,
    0xb2, 0xc8, 0x11, 0x3b, 0x49, 0x72, 0x0e, 0x3b, 0xbf, 0x36, 0x12, 0x3b,
    0xa3, 0x6f, 0x0e, 0x3b, 0xf3, 0xfe, 0x11, 0x3b, 0xc5, 0xba, 0x09, 0x3b,
    0x8a, 0xc6, 0x11, 0x3b, 0x19, 0x3f, 0x0d, 0x3b, 0xdd, 0x26, 0x07, 0x3b,
    0x4a, 0xe0, 0x0a, 0x3b, 0x69, 0xad, 0x12, 0x3b, 0xc1, 0x43, 0x0a, 0x3b,
    0x31, 0xa0, 0x0e, 0x3b, 0x34, 0xfe, 0x11, 0x3b, 0xfa, 0x8e, 0x0e, 0x3b,
    0x2f, 0x50, 0x03, 0x3b, 0x00, 0x7b, 0x12, 0x3b, 0x21, 0xc4, 0x09, 0x3b,
    0x1f, 0x46, 0x0a, 0x3b, 0xa6, 0x79, 0x11, 0x3b, 0x6e, 0xcb, 0x0f, 0x3b,
    0xdf, 0x8c, 0x0c, 0x3b, 0x2b, 0xbf, 0x11, 0x3b, 0xcd, 0xc6, 0x0f, 0x3b,
    0xe7, 0xf8, 0x0b, 0x3b, 0xc7, 0x73, 0x04, 0x3b, 0x2d, 0x41, 0x11, 0x3b,
    0x5a, 0x83, 0x0c, 0x3b, 0x3f, 0x13, 0x10, 0x3b, 0x0b, 0xc9, 0x06, 0x3b,
    0x7a, 0x02, 0x11, 0x3b, 0x54, 0x14, 0x12, 0x3b, 0x37, 0xa1, 0x11, 0x3b,
    0xd7, 0x51, 0x10, 0x3b, 0xcd, 0x1a, 0x12, 0x3b, 0xa0, 0x5a, 0x11, 0x3b,
    0x9a, 0xc5, 0x11, 0x3b, 0x11, 0x00, 0x00, 0x00, 0x74, 0x66, 0x6c, 0x2e,
    0x70, 0x73, 0x65, 0x75, 0x64, 0x6f, 0x5f, 0x71, 0x63, 0x6f, 0x6e, 0x73,
    0x74, 0x00, 0x00, 0x00, 0x02, 0x00, 0x00, 0x00, 0x2a, 0x00, 0x00, 0x00,
    0x20, 0x00, 0x00, 0x00, 0x7e, 0xff, 0xff, 0xff, 0x00, 0x00, 0x00, 0x01,
    0x10, 0x00, 0x00, 0x00, 0x10, 0x00, 0x00, 0x00, 0x0a, 0x00, 0x00, 0x00,
    0x1c, 0x00, 0x00, 0x00, 0x94, 0xfd, 0xff, 0xff, 0x0f, 0x00, 0x00, 0x00,
    0x61, 0x72, 0x69, 0x74, 0x68, 0x2e, 0x63, 0x6f, 0x6e, 0x73, 0x74, 0x61,
    0x6e, 0x74, 0x38, 0x00, 0x04, 0x00, 0x00, 0x00, 0x20, 0x00, 0x00, 0x00,
    0x01, 0x00, 0x00, 0x00, 0x03, 0x00, 0x00, 0x00, 0x09, 0x00, 0x00, 0x00,
    0x52, 0xfe, 0xff, 0xff, 0x00, 0x00, 0x00, 0x01, 0x14, 0x00, 0x00, 0x00,
    0x14, 0x00, 0x00, 0x00, 0x09, 0x00, 0x00, 0x00, 0x00, 0x00, 0x00, 0x02,
    0x1c, 0x00, 0x00, 0x00, 0xdc, 0xfd, 0xff, 0xff, 0x0f, 0x00, 0x00, 0x00,
    0x61, 0x72, 0x69, 0x74, 0x68, 0x2e, 0x63, 0x6f, 0x6e, 0x73, 0x74, 0x61,
    0x6e, 0x74, 0x37, 0x00, 0x01, 0x00, 0x00, 0x00, 0x03, 0x00, 0x00, 0x00,
    0x00, 0x00, 0x16, 0x00, 0x18, 0x00, 0x14, 0x00, 0x00, 0x00, 0x10, 0x00,
    0x0c, 0x00, 0x08, 0x00, 0x00, 0x00, 0x00, 0x00, 0x00, 0x00, 0x07, 0x00,
    0x16, 0x00, 0x00, 0x00, 0x00, 0x00, 0x00, 0x01, 0x10, 0x00, 0x00, 0x00,
    0x10, 0x00, 0x00, 0x00, 0x08, 0x00, 0x00, 0x00, 0x1c, 0x00, 0x00, 0x00,
    0x2c, 0xfe, 0xff, 0xff, 0x0f, 0x00, 0x00, 0x00, 0x61, 0x72, 0x69, 0x74,
    0x68, 0x2e, 0x63, 0x6f, 0x6e, 0x73, 0x74, 0x61, 0x6e, 0x74, 0x36, 0x00,
    0x01, 0x00, 0x00, 0x00, 0x20, 0x00, 0x00, 0x00, 0xde, 0xfe, 0xff, 0xff,
    0x00, 0x00, 0x00, 0x01, 0x14, 0x00, 0x00, 0x00, 0x14, 0x00, 0x00, 0x00,
    0x03, 0x00, 0x00, 0x00, 0x00, 0x00, 0x00, 0x02, 0x1c, 0x00, 0x00, 0x00,
    0x68, 0xfe, 0xff, 0xff, 0x0f, 0x00, 0x00, 0x00, 0x61, 0x72, 0x69, 0x74,
    0x68, 0x2e, 0x63, 0x6f, 0x6e, 0x73, 0x74, 0x61, 0x6e, 0x74, 0x35, 0x00,
    0x01, 0x00, 0x00, 0x00, 0x01, 0x00, 0x00, 0x00, 0x1a, 0xff, 0xff, 0xff,
    0x00, 0x00, 0x00, 0x01, 0x14, 0x00, 0x00, 0x00, 0x14, 0x00, 0x00, 0x00,
    0x06, 0x00, 0x00, 0x00, 0x00, 0x00, 0x00, 0x02, 0x1c, 0x00, 0x00, 0x00,
    0xa4, 0xfe, 0xff, 0xff, 0x0f, 0x00, 0x00, 0x00, 0x61, 0x72, 0x69, 0x74,
    0x68, 0x2e, 0x63, 0x6f, 0x6e, 0x73, 0x74, 0x61, 0x6e, 0x74, 0x34, 0x00,
    0x01, 0x00, 0x00, 0x00, 0x01, 0x00, 0x00, 0x00, 0x56, 0xff, 0xff, 0xff,
    0x00, 0x00, 0x00, 0x01, 0x14, 0x00, 0x00, 0x00, 0x14, 0x00, 0x00, 0x00,
    0x05, 0x00, 0x00, 0x00, 0x00, 0x00, 0x00, 0x02, 0x1c, 0x00, 0x00, 0x00,
    0xe0, 0xfe, 0xff, 0xff, 0x0f, 0x00, 0x00, 0x00, 0x61, 0x72, 0x69, 0x74,
    0x68, 0x2e, 0x63, 0x6f, 0x6e, 0x73, 0x74, 0x61, 0x6e, 0x74, 0x33, 0x00,
    0x00, 0x00, 0x00, 0x00, 0x8e, 0xff, 0xff, 0xff, 0x00, 0x00, 0x00, 0x01,
    0x14, 0x00, 0x00, 0x00, 0x14, 0x00, 0x00, 0x00, 0x04, 0x00, 0x00, 0x00,
    0x00, 0x00, 0x00, 0x02, 0x1c, 0x00, 0x00, 0x00, 0x18, 0xff, 0xff, 0xff,
    0x0f, 0x00, 0x00, 0x00, 0x61, 0x72, 0x69, 0x74, 0x68, 0x2e, 0x63, 0x6f,
    0x6e, 0x73, 0x74, 0x61, 0x6e, 0x74, 0x32, 0x00, 0x00, 0x00, 0x00, 0x00,
    0xc6, 0xff, 0xff, 0xff, 0x00, 0x00, 0x00, 0x01, 0x14, 0x00, 0x00, 0x00,
    0x14, 0x00, 0x00, 0x00, 0x03, 0x00, 0x00, 0x00, 0x00, 0x00, 0x00, 0x02,
    0x1c, 0x00, 0x00, 0x00, 0x50, 0xff, 0xff, 0xff, 0x0f, 0x00, 0x00, 0x00,
    0x61, 0x72, 0x69, 0x74, 0x68, 0x2e, 0x63, 0x6f, 0x6e, 0x73, 0x74, 0x61,
    0x6e, 0x74, 0x31, 0x00, 0x00, 0x00, 0x00, 0x00, 0x00, 0x00, 0x16, 0x00,
    0x1c, 0x00, 0x18, 0x00, 0x17, 0x00, 0x10, 0x00, 0x0c, 0x00, 0x08, 0x00,
    0x00, 0x00, 0x00, 0x00, 0x00, 0x00, 0x07, 0x00, 0x16, 0x00, 0x00, 0x00,
    0x00, 0x00, 0x00, 0x01, 0x14, 0x00, 0x00, 0x00, 0x14, 0x00, 0x00, 0x00,
    0x02, 0x00, 0x00, 0x00, 0x00, 0x00, 0x00, 0x02, 0x1c, 0x00, 0x00, 0x00,
    0xa0, 0xff, 0xff, 0xff, 0x0e, 0x00, 0x00, 0x00, 0x61, 0x72, 0x69, 0x74,
    0x68, 0x2e, 0x63, 0x6f, 0x6e, 0x73, 0x74, 0x61, 0x6e, 0x74, 0x00, 0x00,
    0x00, 0x00, 0x00, 0x00, 0x00, 0x00, 0x16, 0x00, 0x1c, 0x00, 0x18, 0x00,
    0x00, 0x00, 0x14, 0x00, 0x10, 0x00, 0x0c, 0x00, 0x00, 0x00, 0x00, 0x00,
    0x08, 0x00, 0x07, 0x00, 0x16, 0x00, 0x00, 0x00, 0x00, 0x00, 0x00, 0x01,
    0x14, 0x00, 0x00, 0x00, 0x24, 0x00, 0x00, 0x00, 0x24, 0x00, 0x00, 0x00,
    0x01, 0x00, 0x00, 0x00, 0x40, 0x00, 0x00, 0x00, 0x03, 0x00, 0x00, 0x00,
    0xff, 0xff, 0xff, 0xff, 0x1e, 0x00, 0x00, 0x00, 0x09, 0x00, 0x00, 0x00,
    0x04, 0x00, 0x04, 0x00, 0x04, 0x00, 0x00, 0x00, 0x1e, 0x00, 0x00, 0x00,
    0x73, 0x65, 0x72, 0x76, 0x69, 0x6e, 0x67, 0x5f, 0x64, 0x65, 0x66, 0x61,
    0x75, 0x6c, 0x74, 0x5f, 0x6b, 0x65, 0x72, 0x61, 0x73, 0x5f, 0x74, 0x65,
    0x6e, 0x73, 0x6f, 0x72, 0x3a, 0x30, 0x00, 0x00, 0x03, 0x00, 0x00, 0x00,
    0x01, 0x00, 0x00, 0x00, 0x1e, 0x00, 0x00, 0x00, 0x09, 0x00, 0x00, 0x00,
    0x08, 0x00, 0x00, 0x00, 0x90, 0x00, 0x00, 0x00, 0x74, 0x00, 0x00, 0x00,
    0x64, 0x00, 0x00, 0x00, 0x54, 0x00, 0x00, 0x00, 0x40, 0x00, 0x00, 0x00,
    0x24, 0x00, 0x00, 0x00, 0x14, 0x00, 0x00, 0x00, 0x04, 0x00, 0x00, 0x00,
    0x9c, 0xff, 0xff, 0xff, 0x53, 0x00, 0x00, 0x00, 0x00, 0x00, 0x00, 0x53,
    0xa8, 0xff, 0xff, 0xff, 0x2d, 0x00, 0x00, 0x00, 0x00, 0x00, 0x00, 0x2d,
    0xb4, 0xff, 0xff, 0xff, 0x4d, 0x00, 0x00, 0x00, 0x00, 0x00, 0x00, 0x4d,
    0x0c, 0x00, 0x10, 0x00, 0x0f, 0x00, 0x00, 0x00, 0x08, 0x00, 0x04, 0x00,
    0x0c, 0x00, 0x00, 0x00, 0x09, 0x00, 0x00, 0x00, 0x0c, 0x00, 0x00, 0x00,
    0x00, 0x00, 0x00, 0x09, 0xdc, 0xff, 0xff, 0xff, 0x28, 0x00, 0x00, 0x00,
    0x00, 0x00, 0x00, 0x28, 0xe8, 0xff, 0xff, 0xff, 0x16, 0x00, 0x00, 0x00,
    0x00, 0x00, 0x00, 0x16, 0xf4, 0xff, 0xff, 0xff, 0x03, 0x00, 0x00, 0x00,
    0x00, 0x00, 0x00, 0x03, 0x0c, 0x00, 0x0c, 0x00, 0x0b, 0x00, 0x00, 0x00,
    0x00, 0x00, 0x04, 0x00, 0x0c, 0x00, 0x00, 0x00, 0x46, 0x00, 0x00, 0x00,
    0x00, 0x00, 0x00, 0x46
};

const unsigned int weather_model_size = 10552;

#endif
